'<pad>_'
'<EOS>_'
'the_'
'of_'
'. _'
' = _'
', _'
'is_'
'._'
'a_'
'and_'
'x_'
'in_'
'?_'
'/_'
's_'
'to_'
'0_'
'_'
'2_'
'1_'
'5_'
'A_'
'3_'
'If_'
'at_'
'=_'
'10_'
'4_'
'The_'
'are_'
'+_'
'y_'
'many_'
'for_'
'*_'
'20_'
'-_'
'6_'
'by_'
'that_'
'number_'
'% _'
'8_'
'on_'
'be_'
'e_'
'What_'
'12_'
'(_'
' + _'
'How_'
'what_'
') = _'
'how_'
'was_'
'm_'
'd_'
'15_'
'7_'
'will_'
'100_'
'per_'
'Rs_'
'n_'
'it_'
'each_'
'30_'
'B_'
'can_'
' (_'
'he_'
'50_'
'9_'
'total_'
'average_'
'25_'
'from_'
',_'
'40_'
'r_'
' $_'
'speed_'
'years_'
't_'
'as_'
'an_'
'than_'
'60_'
'then_'
'two_'
'days_'
'one_'
'his_'
'with_'
'price_'
'percent_'
'have_'
'has_'
'km_'
'In_'
'X_'
'same_'
''_'
')=_'
'hours_'
'Find_'
'train_'
'work_'
':_'
'time_'
'ratio_'
'more_'
'age_'
'were_'
'18_'
'16_'
'b_'
'rate_'
')_'
'hour_'
'much_'
'11_'
'first_'
'cost_'
' - _'
'if_'
'which_'
'24_'
'\u_'
'^_'
'dollars_'
'k_'
'C_'
'did_'
'ed_'
' ?_'
'14_'
'c_'
'sum_'
'long_'
'they_'
'numbers_'
' , _'
' =_'
'80_'
'000_'
'students_'
'all_'
'year_'
'=(_'
'she_'
'miles_'
'length_'
'its_'
'there_'
'hr_'
'would_'
'certain_'
'ing_'
'p_'
' * _'
'minutes_'
'water_'
'h_'
'distance_'
'their_'
'had_'
'45_'
'profit_'
'l_'
'does_'
'36_'
'three_'
'her_'
'value_'
'sold_'
'day_'
'between_'
'take_'
'man_'
'= _'
'second_'
'13_'
'? _'
'35_'
'times_'
'do_'
'75_'
'interest_'
'other_'
'amount_'
'after_'
'*(_'
'00_'
'es_'
'cm_'
'90_'
'when_'
') _'
' _'
'respectively_'
'\10;_'
'kmph_'
'car_'
'together_'
'kg_'
'or_'
' . _'
'them_'
'area_'
'120_'
'equal_'
'find_'
'200_'
'seconds_'
'probability_'
'70_'
'both_'
'this_'
'feet_'
'22_'
'new_'
'21_'
'tank_'
'square_'
'g_'
' : _'
'17_'
'men_'
'At_'
'end_'
'must_'
'person_'
'takes_'
'people_'
'z_'
'48_'
'32_'
'er_'
'following_'
'500_'
'less_'
'out_'
'complete_'
'He_'
'weight_'
'meters_'
'28_'
'Two_'
'There_'
'twice_'
'class_'
'old_'
'divided_'
'money_'
'’_'
'/(_'
'300_'
'P_'
'remaining_'
'only_'
'not_'
'but_'
'up_'
'integers_'
'19_'
'week_'
'make_'
'so_'
'ages_'
'27_'
'running_'
'present_'
'150_'
'w_'
'boys_'
'Y_'
'26_'
'42_'
'books_'
')+(_'
'23_'
'every_'
'digit_'
'should_'
'last_'
'When_'
'integer_'
')/_'
'you_'
'55_'
'bought_'
'paid_'
'third_'
'I_'
'1000_'
'o_'
'difference_'
'positive_'
'left_'
'solution_'
'four_'
'company_'
'fill_'
'now_'
'half_'
'these_'
'Q_'
')*_'
'made_'
'into_'
'who_'
'discount_'
'400_'
'school_'
'remainder_'
'get_'
'mixture_'
'group_'
'alone_'
'increased_'
'percentage_'
'After_'
' % _'
'least_'
'working_'
'another_'
'months_'
'month_'
'72_'
'no_'
'%. _'
'2x_'
'children_'
'tickets_'
'him_'
'180_'
'different_'
'son_'
'piece_'
'inches_'
'possible_'
'invested_'
'red_'
'contains_'
'constant_'
'while_'
'original_'
'sale_'
'600_'
'point_'
'girls_'
'such_'
'five_'
'store_'
'pounds_'
'rest_'
'f_'
'income_'
' '
'sales_'
'side_'
'65_'
'=((_'
'On_'
'marks_'
'trip_'
'selling_'
'33_'
': _'
'54_'
'women_'
'mean_'
'job_'
'business_'
'travel_'
'ly_'
'salary_'
'runs_'
'could_'
'sells_'
'box_'
'64_'
'costs_'
'ng_'
'01_'
'added_'
'points_'
'digits_'
'student_'
'share_'
'used_'
'got_'
'still_'
'travels_'
'i_'
'population_'
'D_'
'votes_'
'increase_'
'during_'
'direction_'
'800_'
'over_'
'exactly_'
'rectangular_'
'52_'
'back_'
'members_'
'125_'
'cover_'
')/(_'
'annual_'
'She_'
'balls_'
'One_'
'boat_'
'ago_'
'bus_'
'160_'
'blue_'
'platform_'
'order_'
'John_'
' ; _'
'smaller_'
'cross_'
'cards_'
'q_'
'rs_'
'250_'
'56_'
'part_'
'minute_'
'finish_'
'For_'
'cars_'
'85_'
'spent_'
'row_'
'pipe_'
'room_'
'An_'
')*(_'
'height_'
'machine_'
'next_'
')-_'
'some_'
'th_'
'product_'
'larger_'
'start_'
'father_'
'employees_'
'milk_'
'before_'
'34_'
'started_'
'liters_'
'earned_'
'article_'
'apples_'
'sec_'
'A'
'taken_'
'game_'
'took_'
'38_'
'ts_'
'random_'
'buy_'
'selected_'
'been_'
')+_'
' '_'
'gets_'
'3x_'
'received_'
'240_'
'workers_'
'simple_'
'It_'
'sell_'
'pass_'
'R_'
'tax_'
'loss_'
'any_'
'filled_'
'96_'
'score_'
'rectangle_'
'opposite_'
'44_'
'31_'
' =(_'
'six_'
' :_'
'Each_'
'37_'
'full_'
'greater_'
'110_'
'units_'
'team_'
'house_'
'140_'
'set_'
'mile_'
'95_'
'fraction_'
'bag_'
'29_'
')^_'
'traveled_'
'ers_'
'360_'
'place_'
'run_'
'ion_'
'current_'
'produce_'
'starts_'
'metres_'
'whose_'
'worth_'
'off_'
'kilometers_'
'increases_'
' / _'
'green_'
'book_'
'required_'
'given_'
'39_'
'+(_'
'crosses_'
'circle_'
'worked_'
'paint_'
'arithmetic_'
'al_'
'monthly_'
'O'
'min_'
'.  _'
'wheel_'
'where_'
'terms_'
'radius_'
'purchased_'
'Which_'
'; _'
'%, _'
'meter_'
'field_'
'st_'
'sq_'
'went_'
') =_'
'persons_'
'  _'
'empty_'
'whole_'
'white_'
'trains_'
'5x_'
'city_'
'66_'
'found_'
'marbles_'
'ball_'
'E'
'2000_'
'20'
'pieces_'
'traveling_'
'boxes_'
'cents_'
'mixed_'
'.\10;_'
'5000_'
'consecutive_'
'way_'
'gallons_'
'They_'
'))_'
'S'
'need_'
'grade_'
'breadth_'
'volume_'
'84_'
'investment_'
'0'
'type_'
'ment_'
'49_'
'Then_'
'term_'
'ry_'
' ? _'
'ro'
'S_'
'15'
'E_'
'perimeter_'
'test_'
'home_'
'among_'
'stream_'
'sides_'
'le_'
')= _'
'child_'
'ways_'
'46_'
'63_'
'47_'
'gain_'
'mph_'
've_'
'my_'
'Of_'
'pipes_'
'coins_'
'Three_'
'M_'
'leaves_'
'ft_'
'divisible_'
'answer_'
'pound_'
'additional_'
'4x_'
'station_'
'40'
'food_'
'41_'
'shop_'
'earn_'
'trees_'
'line_'
'annum_'
'picked_'
'faster_'
'stock_'
'pay_'
'y'
'25'
'games_'
'10'
'oranges_'
'even_'
'ce_'
'30'
'use_'
'maximum_'
'either_'
'plus_'
'During_'
'greatest_'
'62_'
'put_'
'period_'
'journey_'
'along_'
'd'
'2'
'triangle_'
'ten_'
'14'
'go_'
'dimes_'
'alcohol_'
'ies_'
'drawn_'
'covers_'
'result_'
'pole_'
'entire_'
'By_'
'your_'
'notes_'
'race_'
'floor_'
'capacity_'
'P'
'C'
'account_'
'18'
'walk_'
'also_'
'machines_'
'approximately_'
'pool_'
'passes_'
'questions_'
'en_'
'joined_'
'circular_'
'width_'
'68_'
'sequence_'
'parts_'
'wide_'
'T_'
' -_'
'moving_'
'v_'
'right_'
'boy_'
'players_'
'above_'
'decreased_'
'43_'
'3'
'later_'
'down_'
'^(_'
'99_'
'12'
'meet_'
'50'
'going_'
'items_'
'candidate_'
'se_'
'far_'
'buys_'
'Z_'
'park_'
'angle_'
'item_'
'hi'
'downstream_'
'charges_'
'24'
'round_'
'reduced_'
'n'
'largest_'
'diameter_'
'130_'
'1200_'
'base_'
' $ _'
'Ra'
'N_'
'5'
'juice_'
'58_'
'x'
'smallest_'
'gave_'
'21'
'scored_'
'ds_'
'through_'
'completed_'
'78_'
'23'
'table_'
'covered_'
'pages_'
'900_'
'ps_'
'co'
'becomes_'
'candy_'
' & _'
'plane_'
'high_'
'L_'
'reach_'
'gives_'
'town_'
'older_'
'Mary_'
'towards_'
'fourth_'
'wants_'
'shopkeeper_'
'obtained_'
'Machine_'
'81_'
'tion_'
'bridge_'
'T'
'-(_'
'chosen_'
'litres_'
'480_'
'35'
'walking_'
'having_'
'large_'
'female_'
'8000_'
'4'
'36'
'formed_'
'His_'
'05_'
'320_'
'play_'
'election_'
'speeds_'
'rates_'
'fast_'
'10000_'
'party_'
'project_'
'dogs_'
'upstream_'
'small_'
'di'
'away_'
'350_'
'22'
'ru'
're'
'makes_'
'108_'
'fish_'
'51_'
'1500_'
'needed_'
'ge_'
'around_'
'88_'
'4000_'
'ter'
'te_'
'sa'
's'
'ne'
'ks_'
'k'
'cistern_'
'mother_'
'final_'
'starting_'
'regular_'
'cups_'
'born_'
'sugar_'
'investing_'
'yellow_'
'vi'
'goes_'
'de_'
'card_'
'apart_'
'? (_'
'ounces_'
'orange_'
'longer_'
'correct_'
'adults_'
'cookies_'
'um_'
't'
'collection_'
'F_'
'280_'
'210_'
'do'
'ic_'
'member_'
'clock_'
'G'
'?\10;_'
'144_'
'top_'
'er'
'computer_'
'compound_'
'To_'
'700_'
'family_'
'dollar_'
'Tom_'
'M'
'105_'
'combined_'
're_'
'prime_'
'nickels_'
'customers_'
'ma'
'cubic_'
'candidates_'
'16'
'), _'
'wall_'
'black_'
'76_'
') '
'sh_'
'Re'
'6'
'give_'
'directions_'
'27'
'simultaneously_'
'seats_'
'randomly_'
'coffee_'
'beginning_'
'200'
'friends_'
'finished_'
'ation_'
'against_'
'previous_'
'gallon_'
'cube_'
'we_'
'ticket_'
'86_'
'single_'
'player_'
')'
'truck_'
'rent_'
'g'
'] = _'
'using_'
'tree_'
'male_'
'bill_'
'19'
'10x_'
'p'
'ny_'
'garden_'
'((_'
'travelling_'
'standard_'
'les_'
'highway_'
'fruit_'
'am_'
'able_'
'I'
'450_'
'ns_'
'needs_'
'marked_'
'due_'
'1'
'pair_'
'letters_'
'grams_'
'goods_'
'drive_'
'container_'
'problems_'
'Ma'
'+ _'
'hrs_'
'contain_'
'pays_'
'cows_'
'R'
'17'
'xy_'
'values_'
'si'
'shares_'
'produces_'
'degrees_'
'Mr_'
'track_'
'shirts_'
'odd_'
'level_'
'ted_'
'le'
'equation_'
'club_'
'8'
'spend_'
'purchase_'
'oil_'
'28'
'slower_'
'playing_'
'ions_'
'distributed_'
'57_'
'u_'
'rupee_'
'cloth_'
'ac'
'revenue_'
'pairs_'
'building_'
'U'
'Company_'
'98_'
'67_'
'opened_'
'm'
'jo'
'expenditure_'
'32'
'walks_'
'pencils_'
'double_'
'bank_'
'6000_'
'26'
')=(_'
')(_'
' – _'
'rice_'
'liter_'
'unit_'
'list_'
'You_'
'true_'
'college_'
'charge_'
'Town_'
'61_'
'wind_'
'question_'
'earns_'
'change_'
'B'
'today_'
'squares_'
'min'
'cut_'
'un'
'quotient_'
'L'
'59_'
'11'
'without_'
'those_'
'rows_'
'invest_'
'el'
'750_'
'standing_'
'so'
'size_'
'shoes_'
'ke_'
'fa'
'en'
'cats_'
'bo'
'45'
'teacher_'
'fifth_'
'Su'
'Co'
'3000_'
')?_'
'quarters_'
'be'
'a'
'). _'
' +_'
'ta'
'reaches_'
'paise_'
'nt_'
'metre_'
'leave_'
'being_'
'So'
'tall_'
'actual_'
'te'
'particular_'
'adult_'
'Sam_'
'92_'
'6x_'
'29'
'nearest_'
'ge'
'bu'
'420_'
'salt_'
'including_'
'baseball_'
'yards_'
'plot_'
'nts_'
'82_'
'tens_'
'proportion_'
'defective_'
'cans_'
'yard_'
'Out_'
'))'
'customer_'
'placed_'
'li'
'ground_'
'drove_'
'decided_'
'minimum_'
'ls_'
'daily_'
'Mo'
'Da'
'wife_'
'savings_'
'cricket_'
'post_'
'passed_'
'mp'
'inch_'
'foot_'
'commission_'
'brand_'
'spends_'
'lo'
'l'
'ate_'
'H_'
'million_'
'la'
'is'
'heads_'
'u'
'replaced_'
'neither_'
'na'
'paper_'
'mix_'
'ad'
'12000_'
'ses_'
'office_'
'mark_'
'da'
'completes_'
'us_'
'respective_'
'il_'
'%?_'
'tra'
'employee_'
'consists_'
'W'
'225_'
'1st_'
' ._'
'prices_'
'ga'
'capital_'
'represents_'
'open_'
'centimeters_'
') + _'
'receives_'
'r'
'hence_'
'ca'
'bottom_'
'W_'
'ti'
'return_'
'720_'
'survey_'
'sta'
'pens_'
'ons_'
'II_'
'weighs_'
'expenses_'
'examination_'
'articles_'
'der_'
'49'
'woman_'
'revolutions_'
'making_'
'lowest_'
'lost_'
'exceeds_'
'53_'
'100'
'younger_'
'ra'
'non_'
'form_'
'ets_'
'1800_'
', -_'
'like_'
'inclusive_'
'factor_'
'phone_'
'ie_'
'ay_'
'ar'
'pu'
'or'
'52'
'. '
'*'
'color_'
'Se'
'87_'
'75'
'112_'
'00'
'surface_'
'series_'
'saved_'
'river_'
'mi'
'Mike_'
'La'
'tan'
'library_'
'gra'
'failed_'
'completely_'
'bike_'
'ur'
'dimensions_'
'comes_'
'thrice_'
'et_'
'chocolate_'
'travelled_'
'ho'
'factory_'
'77_'
'15000_'
'obtain_'
'fi'
'January_'
'51'
'' _'
'pure_'
'produced_'
'ments_'
'eat_'
'already_'
'De'
'=-_'
'60'
'quantity_'
'ot'
'farm_'
'ding_'
'circumference_'
'brother_'
'below_'
'at'
'amounts_'
'G_'
'69_'
'- _'
'tiles_'
'sister_'
'ors_'
'lu'
'am'
'From_'
'9000_'
'74_'
'220_'
'.'
'mo'
'equals_'
'b'
'ap'
'Ka'
'H'
'Al'
'7'
'270_'
'2500_'
'walked_'
'seashells_'
'ride_'
'oc'
'no'
'drives_'
'D'
'An'
'1600_'
'on'
'ol'
'ct'
'cent_'
'budget_'
'us'
'ter_'
'se'
'ity_'
'hold_'
'gs_'
'08_'
'ty_'
'seven_'
'in'
'higher_'
'friend_'
'de'
'as'
'135_'
'ure_'
'task_'
'roses_'
'ri'
'nt'
'head_'
'containing_'
'c'
'To'
'uses_'
'section_'
'il'
'driving_'
'K'
'73_'
'70'
'win_'
'voters_'
'the'
'od'
'innings_'
'1400_'
'won_'
'iti'
'course_'
'compounded_'
'balloons_'
'72'
'199'
'ste'
'shirt_'
'rea'
'own_'
'ice_'
'Mar'
'Le'
'III_'
'33'
'ves_'
'production_'
'pond_'
'me_'
'je'
'ir'
'id'
'committee_'
'N'
'range_'
'mar'
'ance_'
'Mrs_'
'8x_'
'!'
'works_'
'vessel_'
'profits_'
'acid_'
'Y'
'This_'
'Mi'
'K_'
'120'
'sha'
'restaurant_'
'manager_'
'h'
'cylinder_'
'9'
'48'
'39'
'375_'
'su'
'ones_'
'initial_'
'ar_'
'Te'
'until_'
'scores_'
'pa'
'night_'
'na_'
'lunch_'
'la_'
'getting_'
'dy_'
'country_'
'bacteria_'
'po'
'measures_'
'loses_'
'fe'
'ab'
'ship_'
'king_'
'bags_'
'al'
'44'
'(-_'
'resulting_'
'receive_'
'land_'
'just_'
'cast_'
'bottles_'
'Jo'
'7x_'
'34'
'measure_'
'it'
'grew_'
'gains_'
'bananas_'
'ag'
'Ro'
'Km_'
'89_'
'69'
' < _'
' *_'
'weeks_'
'tri'
'tes_'
'tables_'
'local_'
'gu'
'decrease_'
'201'
' > _'
'wa'
'um'
'o'
'nuts_'
'middle_'
'ke'
'har'
'gasoline_'
'done_'
'Sa'
'04_'
'village_'
'throw'
'taking_'
'stamps_'
'increasing_'
'included_'
'fixed_'
'e'
'contained_'
'road_'
'qui'
'married_'
'che'
'79_'
'-'
'rec'
'que'
'op'
'led_'
'deviation_'
'chi'
'71_'
'42'
'spe'
'nce_'
'merchant_'
'ent_'
'car'
'Working_'
' ,_'
'ya'
'service_'
'nor_'
'dep'
'can'
'126_'
'tagged_'
'shelves_'
'mu'
'may_'
'decimal_'
'approximate_'
'Fa'
'El'
'x1'
'originally_'
'meal_'
'equally_'
'dog_'
'case_'
'angles_'
'V_'
'Monday_'
'Ja'
'Approximately_'
'64'
'46'
','
'$_'
'tea_'
'route_'
'leak_'
'ha'
'girl_'
'eight_'
'eggs_'
'correctly_'
'Di'
'13'
'thief_'
'ric'
'j_'
'he'
'farmer_'
'exam_'
'37'
'we'
'ju'
'fence_'
'ex'
'currently_'
'chips_'
'apple_'
'V'
'Ram_'
'Last_'
'Jane_'
'216_'
'ya_'
'stations_'
'registered_'
'pol'
'manufacturer_'
'fewer_'
'z'
'up'
'temperature_'
'subjects_'
'rented_'
'mil'
'lly_'
'lives_'
'jar_'
'i'
'driver_'
'ce'
'birth_'
'Mu'
'video_'
'tip_'
'rs'
'per'
'football_'
'ck_'
'Sandy_'
'Br'
'93_'
'91_'
'ran_'
'parallel_'
'if'
'grapes_'
'came_'
'board_'
'City_'
'% '
'over'
'moves_'
'kilograms_'
'die'
'about_'
'61'
'38'
'yearly_'
'ting_'
'sitting_'
'pe'
'ig'
'destination_'
'cu'
'available_'
'Another_'
'65'
'550_'
'54'
'special_'
'pick_'
'late_'
'enrolled_'
'cubes_'
'Li'
'quarter_'
'hol'
'classes_'
'add_'
'7000_'
'67'
'56'
'x2_'
'weighing_'
'net_'
'measuring_'
'ja'
'computers_'
'char'
'Joan_'
'83_'
'43'
'uni'
'to'
'ss_'
'join_'
'groups_'
'gl'
'fencing_'
'cup_'
'31'
', '
'subtracted_'
'passengers_'
'median_'
'ka'
'ea'
'daughter_'
'ci'
'66'
'57'
'sets_'
'read_'
'pack_'
'ounce_'
'fund_'
'Ve'
'115_'
'ther_'
'sit'
'retail_'
'pictures_'
'ne_'
'inter'
'ine'
'flour_'
'ble'
'He'
'All_'
'weigh_'
'stri'
'shelf_'
'rl'
'purchases_'
'om'
'market_'
'mangoes_'
'letter_'
'investments_'
'instead_'
'im'
'horse_'
'gar'
'discounted_'
'David_'
'85'
'84'
'260_'
')+((_'
'wire_'
'straight_'
'sho'
'roll_'
'fort'
'enc'
'ded_'
'comp'
'bat'
'Je'
'ue'
'sts_'
'staff_'
'sk'
'factors_'
'chairs_'
'English_'
'Ba'
'?'
'20x_'
'1996_'
'12x_'
'102_'
'tor'
'study_'
'returns_'
'package_'
'nie'
'meeting_'
'lengths_'
'invests_'
'gas_'
'es'
'cor'
'bar'
'Ar'
'='
' × _'
' ='
'stops_'
'res'
'packages_'
'multiple_'
'ki'
'good_'
'el_'
'February_'
'Be'
'winning_'
'wheat_'
'vo'
'ul'
'sur'
'short_'
'reduction_'
'pm_'
'fee_'
'doubled_'
'again_'
'Tim_'
'Peter_'
'Ho'
'tel'
'stop_'
'removed_'
'plant_'
'pizza_'
'flowers_'
'fall'
'est'
'90'
'640_'
'3600_'
'wo'
'ld'
'kgs_'
'gold_'
'face_'
'calls_'
'bee'
'au'
'annually_'
'[_'
'Bo'
'170_'
'104_'
'" _'
'’ _'
'youngest_'
'tt'
'th'
'sol'
'math_'
'lle'
'legs_'
'ive_'
'ie'
'eo'
'du'
'cas'
'bi'
'Tuesday_'
'Their_'
'James_'
'06_'
'+'
'	_'
'unc'
'total'
'sh'
'plan_'
'lt'
'gross_'
'dice_'
'bs_'
'Pipe_'
'Car_'
'vote_'
'reduce_'
'problem_'
'pe_'
'payment_'
'costing_'
'common_'
'colo'
'an'
'Deepak_'
'47'
'2400_'
' [_'
'w'
'ver'
'ult'
'toys_'
'pri'
'pet_'
'litre_'
'joins_'
'io'
'divisor_'
'come_'
'ame'
'Sta'
'Five_'
'560_'
'widgets_'
'ows_'
'nine_'
'ni'
'identical_'
'go'
'dozen_'
'bicycle_'
'answered_'
'Ne'
'Jason_'
'Bob_'
'=?_'
'., _'
'ver_'
'teams_'
'sy'
'successive_'
'played_'
'pay'
'ob'
'hu'
'gen'
'But_'
'80'
'175_'
'132_'
'/'
'* _'
'ster'
'stand_'
'rt'
'proportional_'
'preferred_'
'nd'
'multiplied_'
'dec'
'copies_'
'code_'
'ban'
'Wednesday_'
'Train_'
'Rahul_'
'99'
'15x_'
'ving_'
'va'
'types_'
'toward_'
'shipment_'
'plans_'
'et'
'dividing_'
'dis'
'account'
'Po'
'68'
'...'
'wage_'
'shape_'
'low_'
'inside_'
'cra'
'asked_'
'Brand_'
'25x_'
' = ._'
'ua'
'pl'
'multiples_'
'met'
'hot_'
'fuel_'
'des_'
'ders_'
'collect'
'ble_'
'Kat'
'59'
'.?_'
'van'
'st'
'places_'
'eri'
'consisting_'
'catch_'
'candies_'
'bus'
'build_'
'become_'
'ass'
'ally_'
'alloy_'
'With_'
'In'
'Fo'
'128_'
'â_'
'words_'
'wood_'
'ral_'
'liquid_'
'hel'
'hand_'
'drawer_'
'art'
'Ha'
'Con'
'102'
' = ?_'
'word_'
'whom_'
'toy_'
'select_'
'rep'
'ren'
'pennies_'
'page_'
'nc'
'ling_'
'highest_'
'free_'
'extra_'
'even'
'des'
'ch'
'cer'
'ants_'
'Lo'
'Due_'
': '
'124_'
'}'
'valid_'
'ur_'
'science_'
'ries_'
'ph_'
'mow'
'int'
'hn'
'hands_'
'form'
'fer'
'cri'
'bri'
'Hal'
'62'
'100x_'
' | _'
'ying_'
'want_'
'ring_'
'ia'
'est_'
'don'
'com'
'birds_'
'Ta'
'Pri'
'O_'
'Cal'
'Bi'
'Assume_'
'20000_'
'xi'
'trader_'
'telegraph_'
'policeman_'
'peanuts_'
'ordered_'
'matches_'
'ha_'
'ght'
'fair_'
'expected_'
'buying_'
'bills_'
'appro'
'Round_'
'Jill_'
'Four_'
'82'
'540_'
'18000_'
'110'
'zero_'
'tr'
'rooms_'
'poured_'
'pears_'
'out'
'mea'
'me'
'lent_'
'horses_'
'fre'
'clothing_'
'charged_'
'bottle_'
'borrowed_'
'ba'
'altogether_'
'air_'
'Calculate_'
'2nd_'
'165_'
'05'
'ze'
'stoppages_'
'represent_'
'pop'
'partnership_'
'once_'
'mer'
'km'
'fo'
'electric_'
'ee'
'den'
'defined_'
'dealer_'
'bricks_'
'bra'
'92'
'625_'
'440_'
'workshop_'
'tunnel_'
'tennis_'
'owner_'
'output_'
'nni'
'ist'
'inc'
'finds_'
'deck_'
'corn_'
'consume'
'collected_'
'ck'
'ath'
'Hi'
'Had_'
'Ex'
'2y_'
'%'
'returned_'
'ker_'
'houses_'
'gi'
'cyclist_'
'bucket_'
'birthday_'
'allo'
'Pa'
'Now_'
'Man'
'Jack_'
'650_'
'3rd_'
'150'
' = (_'
' ('
'sed_'
'san'
'said_'
'root_'
'ms_'
'ist_'
'ens_'
'chickens_'
'carrots_'
'areas_'
'Jessica_'
'Arun_'
'weekly_'
'sun'
'stre'
'show_'
'rm'
'pla'
'parents_'
'ole'
'of'
'hand'
'design'
'dea'
'batsman_'
'X'
'We'
'J_'
'Har'
'Ga'
'Dan_'
'wages_'
'sin'
'requires_'
'ref'
'quart'
'os'
'maintain'
'jellybeans_'
'ide_'
'disc'
'calculated_'
'Sally_'
'Math'
'F'
'94_'
'198'
' “_'
've'
'ugh_'
'turned_'
'tor_'
'sti'
'silver_'
'ris'
'retailer_'
'kms_'
'hill_'
'express'
'enti'
'decreases_'
'coming_'
'codes_'
'While_'
'Che'
'340_'
'230_'
'162_'
'soccer_'
'ser'
'semi'
'rat'
'power_'
'handed_'
'gained_'
'drink_'
'diagonal_'
'covering_'
'coin_'
'closest_'
'cake_'
'\10;'
'Me'
'However_'
'81'
'” _'
'songs_'
'sing_'
'she'
'rti'
'rr'
'rn'
'rental_'
'ra_'
'paisa_'
'os_'
'non'
'indi'
'ill'
'ied_'
'equivalent_'
'edge_'
'earnings_'
'dd'
'circu'
'beach_'
'ax'
'Ed'
'Bu'
'63'
'53'
'510_'
'within_'
'ward_'
'war'
'success'
'ss'
'rain'
'pump_'
'nu'
'mes'
'm2_'
'ket'
'grow_'
'eti'
'ends_'
'dia'
'cycles_'
'crayons_'
'copper_'
'begins_'
'avg_'
'ant_'
'Robert_'
'June_'
' = '
'tile_'
'taxable_'
'tail'
'sprockets_'
'soap_'
'seniors_'
'sec'
'rc'
'pan'
'ns'
'most_'
'mon'
'hy'
'ducks_'
'deer_'
'date_'
'ct_'
'bel'
'Wa'
'Sara_'
'Ke'
'91'
'55'
'192_'
'x2'
'ven'
'vacation_'
'taxes_'
'rose_'
'pur'
'process_'
'ort'
'ore_'
'name'
'directly_'
'dge'
'department_'
'deep_'
'balance_'
'Sun'
'Saturday_'
'March_'
'Jim_'
'Can'
'40000_'
'under_'
'rel'
'oa'
'lla'
'jeans_'
'ita'
'ft'
'carpet_'
'Ch'
'? '
')-(_'
'ws_'
'tric'
'sli'
'seat_'
'plan'
'pig'
'operat'
'oi'
'model_'
'males_'
'll_'
'll'
'label'
'hin'
'ger_'
'dri'
'climb'
'book'
'block_'
'attended_'
'Wi'
'Go'
'76'
'..'
'.)_'
'xe'
'sw'
'retire'
'path_'
'ning_'
'movies_'
'every'
'ere'
'cs_'
'cream_'
'combinations_'
'arranged_'
'ak'
'act'
'Fred_'
'Car'
'94'
'%_'
' |_'
' %. _'
'zi'
'sixth_'
'sign'
'pro'
'position'
'perfect_'
'movie_'
'load_'
'interior_'
'ini'
'husband_'
'gin'
'fee'
'employed_'
'driven_'
'cash_'
'cal'
'basketball_'
'ard'
'and'
'Q'
'May_'
'Chris_'
'April_'
'Anand_'
'666'
'660_'
'330_'
'*._'
' ;  ; _'
'√_'
'{_'
'worker_'
'tap_'
'system_'
'save_'
'salaries_'
'raisins_'
'painted_'
'mm'
'listed_'
'let'
'excess_'
'ele'
'clu'
'NOT_'
'Michael_'
'July_'
'9x_'
'840_'
'5m_'
'190_'
'138'
'⁄_'
'zoo_'
'uc'
'tions_'
'tin_'
'sphere_'
'selecti'
'season_'
'roll'
'offers_'
'ndy_'
'kilometer_'
'initially_'
'her'
'head'
'fri'
'flag'
'females_'
'erat'
'equi'
'employ'
'dinner_'
'cti'
'cli'
'cate'
'camp_'
'admission_'
'Suppose_'
'97_'
'78'
'103'
'ye'
'well_'
'scale_'
'pencil_'
'log'
'lin'
'lac'
'flower_'
'ear'
'av'
'Ti'
'Pro'
'Paul_'
'Na'
'Adam_'
'95'
'5kmph_'
'41'
'300'
'121'
'100000'
'/ _'
'ug'
'tic'
'tal'
'shorter_'
'saves_'
'rt_'
'rp'
'rides_'
'products_'
'principal_'
'ot_'
'coach_'
'bb'
'ans_'
'Tri'
'The'
'SS'
'Do'
';'
'58'
'0s'
'ye_'
'west_'
'ures_'
'tur'
'taxi_'
'subs'
'sco'
'ret'
'pt_'
'play'
'pat'
'og'
'nic'
'mat'
'lights_'
'han_'
'grocery_'
'favor'
'elder_'
'down'
'didn_'
'cons'
'ati'
'ach'
'ab_'
'Wh'
'Kg_'
'IN'
'Col'
'@_'
'89'
'86'
'4th_'
'185'
'16666666666666666_'
'11x_'
'105'
'09_'
'. (_'
' ;  '
' /_'
'vehicles_'
'uniform_'
'trucks_'
'tie'
'ston'
'pul'
'pot'
'offered_'
'numbered_'
'not'
'morning_'
'inlet_'
'imported_'
'gh'
'estimate'
'elevat'
'contribution_'
'bon'
'big_'
'? ; _'
'74'
'166'
'1000'
'....'
'.	_'
', $_'
' "_'
'written_'
'vel'
'spa'
'rth'
'rotat'
'region_'
'motor'
'gum'
'grand'
'for'
'credit_'
'clothes_'
'check'
'bea'
'always_'
'Nick'
'Karen_'
':'
'1100_'
'02_'
'  ; _'
'ty'
'there'
'sto'
'speak_'
'results_'
'post'
'par'
'paint'
'organiz'
'oo'
'officers_'
'oe'
'mb'
'hats_'
'gh_'
'ence_'
'ec'
'ces_'
'cent'
'caught_'
'bor'
'bond_'
'beats_'
'bar_'
'ahead_'
'actually_'
'Six_'
'Mart'
'Joe_'
'Ge'
';  '
'30000_'
'/- _'
'('
'  '
'wn'
'vid'
'van_'
'usual_'
'ten'
'star'
'plo'
'pi_'
'own'
'nd_'
'mixes_'
'measure'
'lot_'
'lines_'
'ins_'
'ight'
'hundred'
'hourly_'
'hectares_'
'formula_'
'edu'
'eat'
'denomination_'
'cook'
'contribute'
'bring_'
'barrel_'
'attend_'
'Pe'
'CD_'
'Ama'
'88'
'01'
'), (_'
'ub'
'tomato'
'swimming_'
'stocks_'
'state_'
'solve_'
'sm'
'sit_'
'sea'
'ron'
'numerator_'
'negative_'
'load'
'light_'
'lie'
'lar'
'lan'
'known_'
'inat'
'fla'
'fit_'
'ene'
'efficient_'
'die_'
'depth_'
'cupcakes_'
'cated_'
'calculate_'
'a2_'
'Va'
'She'
'Both_'
'As_'
'Ad'
'<_'
' + '
'ys_'
'turn_'
'things_'
'theater_'
'reciprocal'
'object_'
'leaving_'
'inf'
'hard_'
'flo'
'ffe'
'ep'
'ect'
'cult'
'brought_'
'bal'
'Tw'
'Pra'
'Par'
'Given_'
'Don'
'Brad_'
'Am'
'5th_'
'405'
'275_'
'−_'
'ta_'
'stick'
'ski'
'similar_'
'serve'
'sample_'
'ri_'
'resi'
'plate'
'mess'
'len'
'lea'
'homework_'
'eth'
'enter_'
'dra'
'dividend_'
'coordinate'
'ch_'
'billion_'
'bak'
'animals_'
'Si'
'97'
'50000_'
'3y_'
'134'
'02'
' ; '
'wh'
'ute'
'squ'
'smo'
'side'
'sen'
'schools_'
'rin'
'railway_'
'pt'
'nta'
'ng'
'lit'
'ium_'
'itu'
'ical_'
'ful'
'fic'
'eg'
'earlier_'
'division_'
'create_'
'cow_'
'cond'
'cities_'
'blocks_'
'baked_'
'ates_'
'ated_'
'TH'
'Ri'
'Jerry_'
'Friday_'
'850_'
'73'
'4500_'
'114'
'. ; _'
'wins_'
'ut_'
'ura'
'turns_'
'tl'
'tenth_'
'target_'
'supervis'
'summer_'
'sch'
'riding_'
'ran'
'print_'
'pp'
'portion_'
'pace_'
'oun'
'orch'
'mist'
'medi'
'man'
'lake_'
'keeper_'
'help_'
'fu'
'exp'
'ew'
'cour'
'competit'
'coa'
'cell'
'ant'
'allows_'
'allowed_'
'J'
'3333333333333333_'
'136'
'! '
'wrong_'
'win'
'watch_'
'ure'
'some'
'sheep_'
'rupees_'
'rd'
'public'
'past_'
'ow'
'ont'
'lose_'
'leg'
'immediately_'
'graph_'
'function_'
'files_'
'emptie'
'denominator_'
'carton'
'break'
'ala'
'504'
'45000_'
'182'
'yield_'
'wash_'
'wait'
'uts_'
'tire'
'thi'
'stin'
'soft'
'sim'
'rid'
'revenues_'
'responde'
'ree'
'recorde'
'pres'
'polled_'
'picnic_'
'perform'
'ome'
'nte'
'nails_'
'move_'
'mid'
'ls'
'goats_'
'edi'
'distribut'
'cto'
'count'
'concert_'
'broad_'
'bla'
'began_'
'averages_'
'ary_'
'art_'
'State'
'Nancy_'
'Fi'
'Bill_'
'880_'
'83'
'152_'
', "_'
'yrs_'
'yield'
'wat'
'vat'
'spo'
'solutions_'
'repair'
'raise_'
'polygon_'
'para'
'missi'
'line'
'limit_'
'know_'
'kes_'
'ine_'
'include'
'ic'
'heav'
'effect'
'distances_'
'dest'
'condition'
'cogs_'
'cha'
'cement_'
'cannot_'
'attempt'
'adding_'
'Frank'
'Ce'
'Ab'
'98'
'460_'
'0m_'
'07_'
'wind'
'street_'
'sse'
'shots_'
'separately_'
'sca'
'one'
'music_'
'independent_'
'gon'
'geese_'
'front_'
'era'
'deposited_'
'deduct'
'data_'
'cribed_'
'camp'
'Some_'
'Sh'
'Ric'
'Ramesh_'
'New_'
'? ;  ; _'
'10k'
'. $_'
'))=_'
'| '
'yl'
'v'
'urn'
'tower_'
'thus_'
'shadow_'
'reading_'
'pre'
'ple_'
'ose'
'natural_'
'mi_'
'mel'
'marker_'
'lti'
'loo'
'lab'
'kin'
'kh'
'ins'
'ff'
'error_'
'ed'
'dropped_'
'compa'
'close'
'chocolates_'
'cases_'
'beat_'
'bas'
'Sal'
'Rob'
'Raj'
'RS_'
'Ni'
'Mac'
'Ea'
'Ban'
'Assuming_'
'800'
'71'
'580'
'380_'
'2001_'
'180'
'16x_'
'16000_'
'  ;  '
'wrongly_'
'whi'
'telephone_'
'space_'
'sale'
'rounded_'
'reversed_'
'residents_'
'reserv'
'provide'
'past'
'ona'
'occ'
'observation'
'mall'
'ive'
'ion'
'inv'
'inst'
'ica'
'equ'
'early_'
'drain_'
'differ_'
'cycle_'
'corresponding_'
'coll'
'cal_'
'bin'
'ast'
'arrange'
'anc'
'Sc'
'IN_'
'79'
'385'
'2007_'
'139'
'111'
'|'
'yc'
'wheels_'
'university_'
'stea'
'shift_'
'rit'
'rie'
'replacement_'
'reached_'
'pick'
'pen'
'partners_'
'participants_'
'papers_'
'nch_'
'lor'
'lakh'
'lad'
'kilo'
'holds_'
'ff_'
'els_'
'electric'
'eight'
'edges_'
'dro'
'cro'
'concentration_'
'calculat'
'bio'
'bed_'
'Pu'
'Mark_'
'Ken'
'Her_'
'Fu'
'168_'
'147'
'136_'
'0x_'
')._'
'&_'
' ‘_'
'€™_'
'work'
'weights_'
'wed'
'und'
'tw'
'tools_'
'taps_'
'soda_'
'socks_'
'seated_'
'rry_'
'radi'
'program_'
'prize_'
'parking_'
'notebook'
'ness_'
'nding_'
'mus'
'mor'
'mati'
'manage'
'kers_'
'hel_'
'gol'
'gan'
'expression_'
'ent'
'doubles_'
'cone'
'cks_'
'burger'
'bin_'
'batch_'
'are'
'San'
'Jan'
'525_'
'4200'
'36000_'
'333'
'2800'
'255'
'1995_'
'yan'
'sweater'
'slope_'
'shows_'
'shel'
'sep'
'secured_'
'rounds_'
'res_'
'puppies_'
'ph'
'perm'
'nin'
'nes_'
'lev'
'lend'
'individual_'
'ham'
'gge'
'fly_'
'fat_'
'esh'
'esc'
'ero'
'construction_'
'conference_'
'cle'
'chair_'
'cat_'
'ca_'
'buckets_'
'assuming_'
'arrived_'
'appeared_'
'alter'
'albums_'
'advance_'
'ON'
'Mil'
'999'
'980'
'520_'
'365_'
'%._'
' − _'
'…'
'wholesale_'
'val'
'teachers_'
'soli'
'six'
'shi'
'shakes_'
'sent_'
'senior_'
'scre'
'sci'
'printer_'
'ping_'
'pi'
'necessar'
'motorcycl'
'main'
'ma_'
'lower_'
'live'
'hotel_'
'hir'
'grass_'
'graduate'
'een_'
'distinct_'
'degree_'
'couple_'
'count_'
'cial'
'changes_'
'chance_'
'bullet_'
'begin_'
'allowance_'
'add'
'Sarah_'
'Its_'
'Chi'
'= '
':\10;_'
'5km_'
'2x'
'204'
'112'
'whe'
'transaction_'
'sna'
'shin'
'see'
'rou'
'rma'
'relat'
'priced_'
'packe'
'overall_'
'meets_'
'mass_'
'lli'
'kids_'
'ken'
'grape'
'geometr'
'fund'
'flies_'
'exce'
'erasers_'
'def'
'counted_'
'colored_'
'chan'
'brown_'
'boundar'
'bonds_'
'batt'
'bake_'
'asses'
'ani'
'Vi'
'Shi'
'Au'
'Anthony_'
'??_'
'?  '
'324_'
'312_'
'264_'
'0000_'
') = '
' ?'
' %?'
'xt_'
'une'
'trail'
'source'
'show'
'served_'
'rst_'
'rist'
'pizzas_'
'pin'
'peri'
'paying_'
'patient'
'passenger_'
'packs_'
'ou'
'ol_'
'observe'
'new'
'ner'
'mis'
'might_'
'liked_'
'lead'
'lay'
'ladder_'
'kilogram_'
'ji'
'jet_'
'iz'
'ila'
'ia_'
'hair_'
'grow'
'f'
'east_'
'dm'
'crate_'
'con'
'cm'
'choose_'
'bowl_'
'best_'
'bars_'
'ale'
'album_'
'airplane_'
'acti'
'acco'
'Total_'
'Park_'
'Eight_'
'Ca'
'Among_'
'>'
'7500_'
'630_'
'25000_'
'000'
'write'
'weighed_'
'wanted_'
'ton'
'ther'
'tests_'
'swim_'
'shipp'
'scu'
'scooter_'
'rise_'
'prepare'
'passing_'
'part'
'orn'
'mme'
'leak'
'inning_'
'independently_'
'impr'
'ien'
'id_'
'guests_'
'ggi'
'forest_'
'distribution_'
'dh'
'dal'
'clear'
'chose_'
'carr'
'brands_'
'boun'
'attend'
'addition_'
'Will'
'Ravi_'
'Melanie_'
'Kmph_'
'Ki'
'Gre'
'Fre'
'Bar'
'Angel'
'Alyssa_'
'93'
'87'
'810'
'walkway_'
'thousand'
'store'
'shoot'
'remain_'
'rear'
'raised_'
'project'
'pos'
'numer'
'nter_'
'multipl'
'miss'
'lut'
'loan_'
'lawn_'
'junior'
'ings_'
'hall_'
'grades_'
'ging_'
'further_'
'far'
'eas'
'dive'
'dish_'
'commu'
'commodity_'
'cafeteria_'
'br'
'beans_'
'ations_'
'animal_'
'alpha'
'Un'
'Sp'
'Sha'
'Ros'
'Pi'
'Pai'
'Maria_'
'MB'
'Jac'
'Democrats_'
'960_'
'1280_'
'03_'
'"'
' (-_'
'yon'
'ycli'
'wr'
'wi'
'typi'
'trea'
'tons_'
'stan'
'sports_'
'song_'
'slee'
'sheet_'
'process'
'ora'
'lts_'
'lemonade_'
'lamp'
'ics_'
'ial'
'hes'
'hea'
'gard'
'dur'
'divide_'
'din'
'debt_'
'cylindrical_'
'copy_'
'conc'
'cket_'
'because_'
'ave'
'alo'
'Ten_'
'MA'
'Er'
'AM'
'310'
'245_'
'119'
'101_'
'!)'
'×'
'yo'
'variety_'
'twenty_'
'trans'
'sub'
'spot'
'reduc'
'reci'
'radio_'
'provision'
'nal'
'mp_'
'mber'
'mate'
'manufacture_'
'likes_'
'joining_'
'gift_'
'fiction_'
'event_'
'door_'
'dish'
'continues_'
'compos'
'compensation_'
'clo'
'chas'
'centimet'
'center_'
'carrie'
'bushes_'
'band_'
'airport_'
'] '
'\'
'Z'
'Team_'
'Sam'
'OR'
'Lis'
'Juan_'
'Harry_'
'2a_'
'288_'
'224_'
'172'
'117_'
'10m'
'107'
') =(_'
'π_'
'trou'
'tiv'
'thereby_'
'stor'
'stopped_'
'sons_'
'seve'
'salespe'
'real_'
'quantities_'
'quadr'
'qua'
'overtake_'
'ond'
'met_'
'marble_'
'mail'
'magazine'
'log_'
'ley_'
'lation_'
'lap_'
'labor'
'kill'
'intern'
'installment'
'install'
'ing'
'hou'
'hat'
'giving_'
'fishe'
'face'
'eno'
'deliver'
'decreasing_'
'coup'
'contest'
'consu'
'choice'
'cher'
'behind_'
'bab'
'appear'
'ang'
'Suresh_'
'Ru'
'Pla'
'Pat_'
'Over'
'OF_'
'My_'
'Jon'
'Gr'
'Fl'
'December_'
'96'
'7636_'
'195_'
'155_'
'       '
'zinc_'
'variable_'
'ue_'
'tu'
'tting_'
'tter_'
'tow'
'tio'
'spi'
'seller_'
'reme'
'qr'
'ped_'
'orders_'
'opes_'
'offer'
'nne'
'neck'
'near'
'los'
'ler_'
'jogg'
'jacket_'
'ional'
'ian_'
'hostel_'
'honey_'
'hens_'
'fro'
'ey_'
'entered_'
'engine_'
'ee_'
'dre'
'continue'
'cont'
'colors_'
'cla'
'ching_'
'ches_'
'cc'
'carpe'
'cakes_'
'bulbs_'
'borrow'
'bec'
'bear'
'balcony_'
'altitude_'
'afternoon_'
'abi'
'Us'
'US'
'Together_'
'THE_'
'School_'
'Point_'
'November_'
'Keith_'
'Hilt_'
'Cu'
'Biology_'
'5y'
'410'
'256_'
'162'
'160'
'0x'
'08'
')='
'   _'
'ula'
'ually_'
'trapez'
'transportation_'
'tol'
'sod'
'seeds_'
'sections_'
'resultant_'
'regi'
'rd_'
'rainfall_'
'pping_'
'ow_'
'ous_'
'ose_'
'normal_'
'none_'
'nk_'
'ner_'
'mit_'
'mat_'
'list'
'life'
'last'
'hip_'
'grocer_'
'garage_'
'fore_'
'flip'
'fills_'
'ey'
'equations_'
'enter'
'eng'
'end'
'ena_'
'deter'
'cru'
'apartments_'
'agenc'
'Wal'
'Steve_'
'Ste'
'Ph'
'Let_'
'IT'
'Ds_'
'Bri'
'Bet'
'Ben'
'Ai'
'AN'
';  ; '
'448_'
'212_'
'196_'
'154'
'140'
'118'
'115'
'0c'
') * _'
'x3'
'vert'
'ut'
'unt'
'switch'
'short'
'rv'
'rge'
'recent'
'rain_'
'rabbit'
'q'
'puts_'
'purp'
'prizes_'
'pile_'
'photo'
'phe'
'pend'
'mitte'
'manufacturing_'
'mango'
'ly'
'late'
'infor'
'ina'
'iation'
'fes'
'expresse'
'experi'
'ents_'
'earning_'
'diesel_'
'denominations_'
'cub'
'cin'
'cho'
'bow'
'bet_'
'ane'
'aged_'
'af'
'ad_'
'Thursday_'
'Sim'
'Raju_'
'Per'
'Mon'
'Dis'
'Carol_'
'875'
'5280_'
'430'
'384'
'197'
'130'
'122'
'116_'
'))+(_'
' --- _'
' + (_'
' *'
'| = _'
'wish'
'will'
'wel'
'wee'
'ven_'
'tub'
'tual'
'trays_'
'ton_'
'thirt'
'supplie'
'state'
'sion_'
'rk_'
'refr'
'petrol_'
'performance'
'partly_'
'parallelogram_'
'ori'
'ok_'
'ntee'
'nci'
'nat'
'incurred_'
'hundred_'
'hon'
'gue'
'goal'
'gm_'
'frac'
'flash'
'fac'
'ext'
'exceed_'
'eve'
'entr'
'eding_'
'dry'
'divi'
'created_'
'corre'
'choos'
'brick'
'bou'
'berr'
'ber_'
'arr'
'appli'
'acres_'
'a1_'
'Set_'
'PM_'
'Lan'
'Kr'
'Joe'
'Dr'
'DI'
'Cla'
'Cha'
'60km'
'3500_'
'315'
'168'
'1350_'
'121_'
'106_'
'xt'
'x5'
'walls_'
'ville_'
'tm'
'television_'
'technicians_'
'ster_'
'sou'
'sett'
'runner_'
'reve'
'release'
'pupil'
'ple'
'physics_'
'pav'
'noon_'
'nna'
'mobile_'
'metal_'
'itself_'
'intervals_'
'gym_'
'grows_'
'follows_'
'flying_'
'excluded_'
'ely_'
'drinks_'
'drawing_'
'diamond'
'desk_'
'deluxe_'
'column'
'class'
'cked_'
'circles_'
'chicken_'
'characters_'
'casts_'
'buttons_'
'buckles_'
'bli'
'bil'
'bic'
'basic_'
'award'
'answers_'
'across_'
'accident'
'Tha'
'Sunday_'
'Solve_'
'Sachin_'
'Ron'
'Is'
'Fin'
'Determine_'
'Ann'
'5200'
'336_'
'3333_'
'10y_'
')^(_'
')/'
'–_'
'ze_'
'wing_'
'window_'
'walnut'
'waiter_'
'volu'
'ved_'
'uti'
'uri'
'tyre'
'top'
'tom'
'tin'
'thr'
'thing_'
'tell'
'sl'
'sin_'
'shifts_'
'shared_'
'sector_'
'rre'
'rob'
'rg'
'resolution'
'replac'
'repe'
'remains_'
'pies_'
'partner_'
'parked_'
'paperback_'
'online_'
'mtr_'
'moment_'
'match_'
'markers_'
'major_'
'kept_'
'iva'
'ish'
'invest'
'invalid_'
'grad'
'flow'
'figure_'
'elements_'
'duc'
'dig_'
'cur'
'considered_'
'citizen'
'catches_'
'ber'
'assigned_'
'arrives_'
'ade_'
'absent_'
']'
'Nin'
'Matt'
'Gi'
'Emily_'
'ER_'
'ER'
'Cri'
'County_'
'Ci'
'Average_'
'7200'
'500'
'35000_'
'343'
'2200_'
'2160'
'1x_'
'156_'
'111_'
'109'
'-('
', .'
'½_'
'xture'
'wer'
'weave'
'vinegar_'
'vertic'
'velocity_'
'vehicle_'
'under'
't1_'
'surveyed_'
'sum'
'suit'
'subscribe'
'stroke'
'serving'
'satisf'
'rship_'
'rolls_'
'rese'
'range'
'rais'
'rack'
'qualit'
'property_'
'potatoes_'
'planted_'
'photo_'
'peaches_'
'participat'
'painting_'
'overtake'
'ord'
'oid_'
'note'
'msel'
'mom_'
'mod'
'mixing_'
'mini'
'mba'
'mathematics_'
'material_'
'lls_'
'land'
'lai'
'keep_'
'ite_'
'inten'
'inhabit'
'holding_'
'hed_'
'hang'
'ges_'
'finishes_'
'few_'
'fare'
'draws_'
'dit'
'crew_'
'cou'
'contr'
'camera_'
'bur'
'bun'
'broke'
'ats_'
'Tod'
'Sum_'
'Street_'
'Rose_'
'No'
'Jose_'
'Country_'
'Ali'
'900'
'6500'
'60000_'
'50km'
'432_'
'400'
'198_'
'1250_'
',\10;_'
'+('
'% ; '
'$ _'
' - '
' % '
' #'
'    '
'°_'
'zen'
'yr_'
'yes'
'vote'
'uct'
'tour_'
'support'
'sno'
'schem'
'requi'
'represented_'
'regularly_'
'receipts_'
'prop'
'print'
'pper'
'plane'
'piles_'
'outlet_'
'ope'
'ola'
'number'
'normally_'
'nes'
'move'
'mountain_'
'marriage_'
'lot'
'ize'
'interval_'
'hee'
'gy_'
'gram'
'furniture_'
'expen'
'evaporat'
'ev'
'ers'
'enables_'
'emb'
'district_'
'discounts_'
'declared_'
'dai'
'cycli'
'contract'
'content'
'component'
'cms_'
'cket'
'chang'
'cau'
'cap'
'bre'
'bra_'
'blo'
'Za'
'Inc'
'George_'
'5c'
'5400'
'4y_'
'30x_'
'282'
'2700'
'222_'
'208'
'15th_'
'151'
'145_'
'12500_'
'1200'
' )'
'za'
'yle'
'vin_'
'vers'
'transport_'
'ths_'
'temp'
'subject_'
'sport'
'sla'
'signal_'
'shopping_'
'shoppers_'
'shaped_'
'secur'
'sce'
'say'
'repeated_'
'recipe_'
'rds_'
'ration_'
'rac'
'proposal_'
'proce'
'por'
'pink_'
'orie'
'ople'
'operation'
'ngth_'
'mpe'
'lig'
'lica'
'lers'
'ld_'
'kinds_'
'interchang'
'insu'
'hit'
'gs'
'gre'
'glass_'
'fruits_'
'follow'
'fifths_'
'exact_'
'em'
'eleven_'
'eats_'
'doing_'
'dles'
'disk'
'discover'
'develop'
'dent_'
'decides_'
'ddy_'
'clean'
'cit'
'brothers_'
'bl'
'assignment'
'app'
'ami'
'Spe'
'Maxwell_'
'Fe'
'Eve'
'EN'
'CA'
'Aj'
'AT_'
'9999_'
'780_'
'6th_'
'680_'
'555_'
'390_'
'1700'
'1320'
'1260'
'123_'
'1050_'
'0t'
'07'
'0000'
' ----'
'yr'
'yog'
'whereas_'
'week'
'warehouse_'
'vice'
'via_'
'ust'
'triple'
'ser_'
'sand_'
'sam'
'rse'
'rim_'
'recycle'
'rai'
'que_'
'president_'
'pow'
'polic'
'plums_'
'pha'
'noticed_'
'ngs'
'nel_'
'milliliters_'
'lic'
'les'
'layer_'
'ksh'
'jack'
'into'
'homes_'
'hei'
'fol'
'films_'
'fie'
'ffere'
'ens'
'donat'
'dist'
'diagonals_'
'di_'
'determined_'
'dad_'
'corner'
'cook_'
'contain'
'const'
'completi'
'buff'
'bird_'
'bid'
'bees_'
'bedroom_'
'basket_'
'bad_'
'attached_'
'ara'
'ann'
'all'
'ald_'
'ai'
']='
'We_'
'Truck_'
'Tickets_'
'Tan'
'St'
'Ol'
'IS'
'Every_'
'Charl'
'Carl'
'Ay'
'Art'
'Andre'
'=='
'142_'
'14000_'
'137'
'131'
'122_'
'0l'
'08333333333333333_'
'002'
'-----------'
'+.'
'''
'".'
'waste_'
'volumes_'
'vas'
'trying_'
'touch'
'tch'
'subtract'
'strat'
'storage_'
'stone_'
'steps_'
'sma'
'reta'
'rest'
'represent'
'protein_'
'produc'
'premi'
'prefer'
'pra'
'political_'
'pie_'
'pic'
'pes'
'pen_'
'pea'
'overs_'
'ous'
'our_'
'north_'
'mmo'
'ment'
'markup_'
'map_'
'mal_'
'mag'
'm3_'
'lp'
'lis'
'leap'
'kitt'
'inspect'
'heart'
'gro'
'graph'
'fresh_'
'fig'
'eme'
'dru'
'dem'
'deci'
'continu'
'connect'
'concentrate'
'chemical_'
'chemi'
'bles_'
'arc'
'als_'
'\10;(_'
'York_'
'Student'
'Smith'
'Pre'
'Pokemon_'
'Pat'
'No_'
'Farm_'
'Cl'
'Alex_'
'950_'
'7th_'
'378'
'3200_'
'246'
'2009_'
'1440_'
'13x'
'133_'
'1300_'
'10km_'
'1080'
'06'
') / '
'#'
'wrote_'
'wis'
'wickets_'
'washe'
'vessels_'
'vendor_'
'varia'
'typical'
'twel'
'ture_'
'transactions_'
'tracks_'
'til'
'though'
'tch_'
'swee'
'super'
'stud'
'stereos_'
'spir'
'seventh_'
'selects_'
'sel'
'segment'
'rot'
'rod_'
'rhombus_'
'remove'
'rak'
'prob'
'planned_'
'oxen_'
'opti'
'occup'
'nme'
'nche'
'mill'
'micro'
'manufacture'
'loca'
'lib'
'len_'
'laps'
'lady'
'jun'
'iver_'
'ire'
'increment_'
'incorrect'
'ign'
'ices_'
'hit_'
'gat'
'gal'
'freshmen_'
'fra'
'fine'
'fenced_'
'fel'
'ession'
'engineer'
'ended_'
'element'
'electronic_'
'dio'
'curr'
'ction_'
'chemistry_'
'centra'
'bull'
'board'
'blend_'
'bit'
'base'
'back'
'ating_'
'assembl'
'arrive_'
'alm'
'ah'
'adjacent_'
'achi'
'^'
'\u\u'
'Vij'
'Thomas'
'Not'
'Luc'
'Juli'
'Fr'
'Comp'
'Charles_'
'Ash'
'Albert'
'AB'
'6m'
'620'
'600'
'2c'
'265'
'189_'
'176_'
'176'
'04'
')=-_'
' ≤ _'
'   ;  '
'	'
'° '
'yed_'
'with'
'wait_'
'vel_'
'varies_'
'ud'
'uat'
'turni'
'tru'
'tre'
'till_'
'tag'
'tac'
'str'
'ssi'
'spr'
'specifi'
'space'
'size'
'shown_'
'shall_'
'scheduled_'
'sala'
'sal'
'sage'
'rises_'
'revi'
'rag'
'occurs_'
'milli'
'mark'
'loaned_'
'litt'
'lia'
'kel'
'hor'
'health_'
'han'
'hamburgers_'
'force'
'flight_'
'firm_'
'fini'
'film_'
'fifteen_'
'ffi'
'examin'
'elect'
'drop_'
'draw'
'doc'
'dan'
'cy_'
'cted_'
'cos'
'comme'
'combination_'
'cheap'
'call_'
'call'
'cage_'
'built_'
'benefi'
'att'
'ator'
'asp'
'ake_'
'You'
'Wind'
'Raje'
'Number_'
'Meg'
'Hea'
'HC'
'Fran'
'Cap'
'Bob'
'Ben_'
'According_'
'AB_'
'8km'
'60x_'
'5600'
'550'
'4x'
'4800'
'470'
'425'
'325_'
'290_'
'242'
'2250'
'2100_'
'144'
'12t'
'129_'
'125'
'1136_'
'. ;  ; _'
'.  ; '
', ('
')*'
') - _'
' %'
'°'
'you'
'withdraws_'
'wic'
'watermelons_'
'vowels_'
'visit'
'val_'
'upl'
'triang'
'tic_'
'tho'
'thick'
'storm'
'stationary_'
'sai'
'rian'
'reporte'
'remained_'
'reject'
'realize'
'pumpkins_'
'progress'
'professor'
'printe'
'pit'
'pants_'
'overtime_'
'ove'
'nit'
'nda'
'muff'
'mot'
'majoring_'
'longest_'
'lim'
'lbs_'
'lawns_'
'kno'
'iso'
'ile'
'hospital_'
'fte'
'flow_'
'finance_'
'fifty_'
'excluding_'
'erate'
'enty'
'ema'
'dress'
'divisors_'
'deca'
'consist_'
'comb_'
'cky_'
'cheese'
'cati'
'capitals_'
'cages_'
'boo'
'bind'
'bicycle'
'belong'
'automobile_'
'antifreeze_'
'Year_'
'Th'
'Robin_'
'Mang'
'Lind'
'Lee'
'Josh'
'Johnson'
'Hin'
'And'
'Alt'
'Abh'
'??'
'570'
'1900'
'183'
'148_'
'12km'
'123'
'1162'
'0fi'
'-----'
'---'
'- '
'(('
' ;   '
'|_'
'ysi'
'yn'
'works'
'winn'
'washing'
'view'
'vegetable_'
'utive'
'uis'
'tour'
'tit'
'tier'
'supply_'
'supp'
'sums_'
'strawberr'
'stat'
'south'
'seed_'
'saree'
'rocks_'
'rent'
'rece'
'rdan'
'prope'
'prec'
'pie'
'picture_'
'pattern'
'orchard'
'ong_'
'nate'
'migrat'
'melted_'
'majors_'
'magn'
'lf'
'lemon'
'ka_'
'ivi'
'intersect'
'import'
'ifica'
'ident'
'ib'
'hte'
'ht'
'house'
'hose'
'hired_'
'hiker'
'hare_'
'handled_'
'frequency_'
'fou'
'forg'
'fle'
'fficien'
'exi'
'ef'
'eal'
'dressing_'
'dev'
'culus_'
'cr'
'conve'
'contested_'
'construct'
'ckey_'
'cele'
'captain'
'caps_'
'cabbage'
'bir'
'beer_'
'averaged_'
'approximate'
'applica'
'air'
'ain'
'adve'
'admit'
'acce'
'Work'
'Thu'
'TI'
'Sin'
'RE'
'Op'
'Nic'
'Lu'
'Kim'
'Int'
'French_'
'Bl'
'Amit'
'770'
'760_'
'444'
'342'
'2k'
'2400'
'2100'
'143_'
'12m'
'101'
'100m_'
') +'
'$'
'ybe'
'x4'
'wid'
'wear'
'watche'
'visitors_'
'vest'
'ular_'
'trips_'
'transfer'
'toss'
'too'
'thir'
'tee'
'tas'
'sure_'
'stro'
'stop'
'split_'
'spider'
'sibling'
'salesman'
'rse_'
'root'
'rib'
'response'
'report'
'remain'
'ram'
'ral'
'qual'
'pumps_'
'press'
'port'
'pet'
'paved_'
'patio'
'passwords_'
'outs'
'other'
'od_'
'nking_'
'multiply_'
'ml_'
'mine_'
'mem'
'mec'
'maths_'
'logy_'
'lets_'
'lang'
'iron_'
'involv'
'insurance_'
'inde'
'income'
'imp'
'icu'
'hist'
'happ'
'halved_'
'geta'
'general'
'fir'
'expe'
'exercis'
'ery_'
'drain'
'doug'
'displa'
'diminishe'
'deposit_'
'deleted_'
'convey'
'compare'
'cend'
'cashew'
'care'
'cannel_'
'buy'
'boa'
'beds_'
'arch'
'analy'
'\u\u\u\u'
'Victor'
'Unit'
'Sept'
'Rac'
'North'
'Miche'
'Late'
'LCM_'
'Exa'
'Ellen'
'Delhi_'
'Danny_'
'Ann_'
'8m'
'833'
'77'
'66666666666666'
'5300_'
'4k'
'416'
'333333333333'
'2n_'
'289_'
'252_'
'20km_'
'17th_'
'175'
'165'
'15k'
'153_'
'133'
'127_'
'104'
'."'
' = \u_'
'—'
'·'
'€'
'÷'
'<'
'√'
'@'
'Ã'
'’'
'–'
'≠'
'“'
'≤'
'”'
'Â'
'`'
'&'
'∘'
'{'
'₹'
'â'
'∠'
'¼'
'²'
'−'
'Ɵ'
'É'
'∗'
'′'
'ç'
'‘'
'¾'
'['
'‚'
'​'
'π'
'¹'
'¢'
'￡'
'В'
'ˆ'
'™'
'„'
'³'
'¥'
''
'მ'
'­'
'ƞ'
'º'
'£'
'j'
'≥'
'œ'
'é'
''
'◎'
'┴'
'†'
'θ'
'∝'
' '
'Π'
'ƫ'
'š'
'ª'
'🙂'
'？'
'ﬁ'
'銆'
'乗'
'⋅'
'∞'
'∙'
'∑'
'∏'
'⅔'
' '
'Δ'
';'
'˜'
'ð'
'í'
'½'
'´'
''
'⁄'
'
'
