'<pad>_'
'<EOS>_'
'._'
'0_'
'. _'
'the_'
'of_'
'*_'
'and_'
'many_'
'a_'
'How_'
'\u_'
'in_'
'=_'
'+_'
'X_'
'2_'
'to_'
'5_'
'? _'
'dollars_'
'3_'
'is_'
' , _'
'4_'
'?_'
', _'
'number_'
')_'
'for_'
'6_'
'=(_'
'If_'
'-_'
'how_'
' _'
'are_'
'8_'
'have_'
'did_'
'7_'
's_'
' . _'
'each_'
'has_'
'1_'
'9_'
'he_'
'she_'
'on_'
')=_'
'_'
'had_'
'The_'
'(_'
'A_'
'total_'
'10_'
'were_'
'x_'
' = _'
'at_'
'does_'
'more_'
'much_'
'her_'
'with_'
'was_'
')+(_'
'01_'
'per_'
'cost_'
'25_'
'they_'
' + _'
' ? _'
'=((_'
'12_'
'20_'
'will_'
'than_'
'tickets_'
')*_'
' % _'
'that_'
'from_'
'There_'
'first_'
'*(_'
'miles_'
'second_'
'hours_'
')-_'
'there_'
'all_'
'Find_'
'15_'
'his_'
'two_'
'/_'
'times_'
'it_'
'sold_'
'be_'
'50_'
'What_'
' '_'
'one_'
'would_'
'11_'
'them_'
'She_'
'students_'
'now_'
'bought_'
'as_'
')+_'
''_'
')/_'
'books_'
'pounds_'
'14_'
'30_'
'smaller_'
'He_'
'hour_'
'18_'
'))_'
'40_'
'dimes_'
'larger_'
'an_'
'13_'
'money_'
'can_'
'16_'
' ?_'
' - _'
'by_'
'cards_'
'sum_'
'left_'
'children_'
'75_'
'same_'
'apples_'
'picked_'
'long_'
'speed_'
'school_'
'year_'
'games_'
'day_'
'make_'
'buy_'
'pieces_'
'35_'
'new_'
'00_'
' $_'
'numbers_'
'solution_'
'car_'
'In_'
',_'
'up_'
'but_'
'store_'
'into_'
'60_'
'nickels_'
'45_'
'quarters_'
'points_'
'17_'
'game_'
'36_'
'24_'
'do_'
'+(_'
'time_'
'gave_'
'marbles_'
'interest_'
'boys_'
'you_'
'adults_'
'put_'
'price_'
'trees_'
'people_'
'y_'
'e_'
'((_'
'pound_'
'end_'
'box_'
'd_'
'costs_'
'27_'
'get_'
'22_'
'twice_'
't_'
'spent_'
'seashells_'
'made_'
'21_'
'80_'
'23_'
'some_'
'rest_'
'mile_'
'candy_'
'another_'
'Each_'
'old_'
'boxes_'
'balloons_'
'19_'
'then_'
'girls_'
'adult_'
'three_'
'their_'
'minutes_'
'  _'
'used_'
'pencils_'
'less_'
'ing_'
'take_'
'digit_'
'33_'
'cents_'
'100_'
' (_'
'rate_'
'week_'
'if_'
'part_'
'At_'
'together_'
'For_'
'42_'
'workers_'
'use_'
'ticket_'
'other_'
'baseball_'
'28_'
'water_'
'what_'
'went_'
'blue_'
'amount_'
'34_'
'sell_'
'found_'
'Joan_'
'32_'
'park_'
'oranges_'
'could_'
'48_'
'26_'
'Mary_'
'41_'
'38_'
'tens_'
'got_'
'class_'
'age_'
')+((_'
'sale_'
'only_'
'cookies_'
'37_'
'piece_'
'need_'
'spend_'
'should_'
'39_'
'third_'
'dollar_'
'units_'
'must_'
'house_'
'wind_'
'out_'
'investment_'
'when_'
'takes_'
'problems_'
'point_'
'gallons_'
'ed_'
'last_'
'red_'
'kilometers_'
'student_'
'grew_'
'crayons_'
' $ _'
'go_'
'liters_'
'000_'
'cars_'
'Sam_'
'Jason_'
'55_'
'46_'
'31_'
'paid_'
'friends_'
'during_'
'Mrs_'
'95_'
'47_'
'book_'
'70_'
'worth_'
'today_'
'still_'
'plane_'
'invested_'
'Tom_'
'Sara_'
'One_'
'29_'
'team_'
'small_'
'inches_'
'eggs_'
'125_'
'this_'
'pictures_'
'I_'
'16666666666666666_'
'plus_'
'group_'
'years_'
'ones_'
'Fred_'
'trip_'
'five_'
'cups_'
'coins_'
'average_'
'54_'
'drawer_'
'added_'
'You_'
'Mike_'
'bottle_'
'3333333333333333_'
'playing_'
'month_'
'lunch_'
'lives_'
'ate_'
'acid_'
'49_'
'44_'
'video_'
'shelves_'
'original_'
'mixture_'
'es_'
'85_'
'work_'
'scored_'
'green_'
'earn_'
'away_'
'90_'
'*._'
'wants_'
'seats_'
'find_'
'bank_'
'alcohol_'
'Sally_'
'B_'
'large_'
'bus_'
'On_'
'took_'
'starts_'
'days_'
'customers_'
'carrots_'
'43_'
'mix_'
'friend_'
'bag_'
'When_'
'It_'
'Dan_'
'next_'
'high_'
'garden_'
'finished_'
'coffee_'
'They_'
'roses_'
'pennies_'
'child_'
'Alyssa_'
'peanuts_'
'gives_'
'gallon_'
'already_'
'Nancy_'
'Melanie_'
'05_'
'’_'
'which_'
'restaurant_'
'over_'
'him_'
'cut_'
'blocks_'
'John_'
'percent_'
'needed_'
'grade_'
'equal_'
'earned_'
'bill_'
'before_'
'64_'
'500_'
'.  _'
'ten_'
'pages_'
'or_'
'food_'
'difference_'
'caps_'
'Tim_'
'52_'
'truck_'
'so_'
'party_'
'n_'
'fish_'
'erasers_'
'ball_'
'Jessica_'
'start_'
'plant_'
'orange_'
'flowers_'
'cupcakes_'
'after_'
'Sandy_'
'After_'
'songs_'
'selling_'
'sales_'
'pet_'
'drive_'
'didn_'
'cats_'
'Then_'
'Hilt_'
'200_'
' %. _'
'tree_'
'table_'
'sister_'
'pears_'
'line_'
'hot_'
'far_'
'both_'
'bananas_'
'Park_'
'86_'
'walk_'
'son_'
'questions_'
'groups_'
'every_'
'distance_'
'currently_'
'cup_'
'company_'
'During_'
'value_'
'sells_'
'received_'
'r_'
'player_'
'play_'
'fruit_'
'football_'
'charges_'
'58_'
'56_'
'women_'
'served_'
'pick_'
'paint_'
'middle_'
'longer_'
'half_'
'gets_'
'four_'
'dogs_'
'digits_'
'bags_'
'65_'
'won_'
'regular_'
'its_'
'invest_'
'grams_'
'gas_'
'eat_'
'consecutive_'
'combined_'
'beach_'
'b_'
'Pokemon_'
'72_'
'working_'
'six_'
'score_'
'placed_'
'off_'
'minute_'
'low_'
'l_'
'filled_'
'feet_'
'collection_'
'buys_'
'birthday_'
'88_'
'08333333333333333_'
') _'
'tables_'
'started_'
'puppies_'
'players_'
'needs_'
'mixed_'
'albums_'
'While_'
')=(_'
'white_'
'walked_'
'short_'
'shares_'
'rs_'
'result_'
'pizza_'
'pay_'
'length_'
'job_'
'hold_'
'going_'
'-(_'
'tons_'
'stock_'
'person_'
'oil_'
'm_'
'library_'
'dog_'
'between_'
'balls_'
'bake_'
'attended_'
'annual_'
'Keith_'
'Emily_'
'Benny_'
'ts_'
'tall_'
'shirts_'
'integers_'
'fraction_'
'family_'
'even_'
'cream_'
'clothing_'
'cans_'
'cafeteria_'
'Her_'
'An_'
'3333_'
'yellow_'
'where_'
'stickers_'
'mother_'
'later_'
'integer_'
'grow_'
'flour_'
'chocolate_'
'altogether_'
'Saturday_'
'A'
'96_'
'450_'
'))+(_'
'season_'
'lost_'
'files_'
'chickens_'
'candies_'
'came_'
'birds_'
'bin_'
'375_'
'your_'
'worked_'
'walnut_'
'travels_'
'train_'
'ride_'
'plans_'
'pies_'
'le_'
'father_'
'c_'
'back_'
'This_'
'81_'
'180_'
'zoo_'
'weighed_'
'waiter_'
'trays_'
'single_'
'ry_'
'ratio_'
'pumpkins_'
'peaches_'
'making_'
'ice_'
'give_'
'fee_'
'certain_'
'album_'
'Skittles_'
'87_'
'79_'
'600_'
'51_'
'weighs_'
'watermelons_'
'wash_'
'u'
'theater_'
'section_'
'rooms_'
'pipe_'
'packages_'
'order_'
'night_'
'meal_'
'man_'
'kilograms_'
'k_'
'fill_'
'e'
'different_'
'basketball_'
'barn_'
'baked_'
'admission_'
'82_'
'78_'
'73_'
' %? _'
'while_'
'show_'
'load_'
'h_'
'finds_'
'dogwood_'
'cows_'
'concert_'
'brother_'
'bales_'
'Now_'
'91_'
'84_'
'69_'
'57_'
'250_'
'travel_'
'soccer_'
'seeds_'
'run_'
'played_'
'page_'
'package_'
'income_'
'home_'
'decided_'
'dad_'
'bars_'
'account_'
'Sarah_'
'Jane_'
'99_'
'98_'
'59_'
'120_'
'whose_'
'type_'
'twenty_'
'shop_'
'purchased_'
'potatoes_'
'phone_'
'paper_'
'not_'
'music_'
'mom_'
'legs_'
'leaves_'
'leave_'
'kids_'
'increased_'
'greater_'
'finish_'
'correct_'
'cat_'
'buying_'
'antifreeze_'
'Monday_'
'74_'
'6667_'
'62_'
'150_'
'))=_'
'wheat_'
'weight_'
'wanted_'
'toys_'
'teacher_'
'tax_'
'smallest_'
'shelf_'
'senior_'
'saved_'
'return_'
'read_'
'ran_'
'pile_'
'pie_'
'ng_'
'monthly_'
'milliliters_'
'ly_'
'level_'
'lawns_'
'juice_'
'homework_'
'hamburgers_'
'grain_'
'dozen_'
'deleted_'
'decks_'
'current_'
'collected_'
'Megan_'
'76_'
'63_'
'2000_'
'/(_'
')-(_'
'recycled_'
'produce_'
'o_'
'men_'
'li'
'jet_'
'jar_'
'hi'
'ge'
'fixed_'
'final_'
'fat_'
'fast_'
'er_'
'eight_'
'dinner_'
'change_'
'cages_'
'alloy_'
'S'
'I'
'Haley_'
'E'
'625_'
' % , _'
'turnips_'
'trying_'
'trivia_'
'traveling_'
'toy_'
'sugar_'
'split_'
'shirt_'
'rent_'
'r'
'pics_'
'or'
'office_'
'movie_'
'inside_'
'inch_'
'goes_'
'field_'
'extra_'
'clothes_'
'bottles_'
'bills_'
'air_'
'against_'
'O'
'Maria_'
'Last_'
'Janet_'
'Adam_'
'+((_'
'y'
'traveled_'
'tip_'
'test_'
'tank_'
'such_'
'sodas_'
'size_'
'simple_'
'receipts_'
'profit_'
'product_'
'piles_'
'online_'
'math_'
'markers_'
'largest_'
'flower_'
'fifty_'
'fair_'
'er'
'earns_'
'denominator_'
'daughter_'
'contains_'
'cartons_'
'calls_'
'cage_'
'among_'
'al_'
'Wendy_'
'Two_'
'Twice_'
'His_'
'93_'
'6666666666666666_'
'300_'
'yard_'
'unit_'
'to'
't'
'ship_'
'seven_'
'room_'
'receive_'
'rabbits_'
'plums_'
'pencil_'
'pair_'
'odd_'
'numerator_'
'nine_'
'mowing_'
'model_'
'milk_'
'holds_'
'fourth_'
'faster_'
'farmer_'
'exceeds_'
'equally_'
'either_'
'double_'
'divided_'
'di'
'cook_'
'charge_'
'card_'
'calories_'
'bushes_'
'bucket_'
'boat_'
'apple_'
'ages_'
'add_'
'Tuesday_'
'Tickets_'
'Some_'
'Edward_'
'Bianca_'
'92_'
'67_'
'61_'
'weigh_'
'w'
'vacation_'
'th_'
'shorter_'
'share_'
'science_'
'putting_'
'pure_'
'prices_'
'oak_'
'ne'
'months_'
'general_'
'city_'
'cakes_'
'alone_'
'a'
'Robin_'
'Rachel_'
'Katie_'
'April_'
'89_'
'83_'
'77_'
'68_'
'66_'
'53_'
'104_'
'yesterday_'
'weekend_'
'variable_'
'term_'
'tacos_'
'schools_'
'rolls_'
'recipe_'
'rain_'
'pool_'
'pays_'
'pa'
'ordered_'
'n'
'mo'
'la'
'joined_'
'jo'
'in'
'grocery_'
'fund_'
'foot_'
'ers_'
'drove_'
'desk_'
'country_'
'carton_'
'cantelopes_'
'baskets_'
'agency_'
'acres_'
'Kelly_'
'Chris_'
'97_'
'400_'
'ton_'
'threw_'
'these_'
'th'
'ro'
'right_'
'packs_'
'ounces_'
'nuts_'
'nails_'
'mp3_'
'members_'
'lo'
'lemonade_'
'lake_'
'ion_'
'investments_'
'houses_'
'highway_'
'hamburger_'
'hair_'
'full_'
'exactly_'
'daily_'
'centimeters_'
'bar_'
'apart_'
'aluminum_'
'Your_'
'Roger_'
'Karen_'
'Halloween_'
'C_'
'9'
'800_'
'140_'
'1000_'
'08_'
'))*_'
'worksheets_'
'win_'
'whole_'
'wheel_'
'violet_'
'ter_'
'summer_'
'stamps_'
'st_'
'shortest_'
'shoes_'
'scissors_'
'project_'
'probability_'
'performance_'
'originally_'
'orchard_'
'no_'
'mileage_'
'maple_'
'ma'
'loads_'
'll_'
'le'
'kittens_'
'having_'
'forty_'
'fa'
'expensive_'
'el'
'eating_'
'down_'
'contain_'
'co'
'case_'
'carpenter_'
'called_'
'borrowed_'
'bo'
'black_'
'big_'
'bicycles_'
'band_'
'answer_'
'an'
'also_'
'about_'
'Sunday_'
'Paul_'
'Mr_'
'Le'
'Amy_'
'1800_'
'110_'
')*(_'
'yards_'
'wood_'
'woman_'
'winter_'
'weeks_'
'vase_'
'van_'
'va'
'uploaded_'
'tricycles_'
'ted_'
'subtracted_'
'sitting_'
'ri'
'recycling_'
'pigs_'
'parts_'
'pants_'
'o'
'loses_'
'gum_'
'farther_'
'farm_'
'do'
'discount_'
'decreased_'
'containing_'
'complete_'
'coloring_'
'colored_'
'ck_'
'chairs_'
'ceramic_'
'ce_'
'building_'
'brought_'
'bike_'
'bears_'
'allowance_'
'adopted_'
'ad'
'P'
'Martha_'
'Luke_'
'Later_'
'Kaleb_'
'Frank_'
'Dave_'
'Connie_'
'Charles_'
'97'
'71_'
'5000_'
'23'
'145_'
'12'
'width_'
'w_'
'twentyfive_'
'trail_'
'teams_'
'taller_'
'supply_'
'su'
'stones_'
'stand_'
'sta'
'shopping_'
'shift_'
'serving_'
'se_'
'salary_'
'rides_'
're'
'pump_'
'print_'
'present_'
'plan_'
'organizing_'
'older_'
'meters_'
'ls_'
'loan_'
'limes_'
'like_'
'l'
'ke'
'items_'
'il'
'ic_'
'hotel_'
'harvest_'
'garage_'
'g_'
'free_'
'flew_'
'fifteen_'
'f_'
'en'
'empty_'
'eats_'
'da'
'corn_'
'copper_'
'ci'
'chicken_'
'chef_'
'cement_'
'cashews_'
'car'
'camera_'
'budget_'
'bonds_'
'balcony_'
'ar'
'all'
'airplane_'
'Zoe_'
'Sa'
'Paige_'
'Ma'
'Joyce_'
'Jose_'
'Isabel_'
'Friday_'
'Carol_'
'Car'
'750_'
'18'
'(((_'
'' _'
' -_'
'yogurt_'
'washing_'
'waiting_'
'vi'
'ul'
'towels_'
'thirty_'
'te_'
'stream_'
'so'
'slices_'
'sleeve_'
'silver_'
'serve_'
'seat_'
'savings_'
'save_'
'sand_'
'sa'
'running_'
'rulers_'
'round_'
'ric'
'respectively_'
'res'
'reduced_'
'purchase_'
'pu'
'production_'
'pro'
'pizzas_'
'pitcher_'
'peppers_'
'pastries_'
'p'
'onions_'
'obtain_'
'num_'
'necklaces_'
'ne_'
'nd'
'mow_'
'meet_'
'mar'
'makes_'
'kilogram_'
'k'
'install_'
'hay_'
'hard_'
'gra'
'good_'
'gardens_'
'fly_'
'fe'
'eighty_'
'ducks_'
'ds_'
'driven_'
'cooked_'
'construction_'
'compact_'
'comes_'
'che'
'centimeter_'
'cds_'
'caterpillar_'
'buses_'
'bouquets_'
'been_'
'beans_'
'base_'
'arcade_'
'animals_'
'Victor_'
'Todd_'
'Peter_'
'Lucy_'
'Kimberly_'
'Joe_'
'Jerry_'
'Ho'
'Heather_'
'F'
'Ellen_'
'De'
'Craig_'
'Company_'
'8333333333333335_'
'8'
'6666666666666665_'
'4166666666666667_'
'3333333333333335_'
'30'
'212_'
'142_'
'105_'
'z'
'works_'
'wins_'
'washed_'
'ty_'
'trucks_'
'tra'
'tel'
'ta_'
'sure_'
'soda_'
'sh_'
'set_'
'seniors_'
'se'
'roll_'
'rode_'
'road_'
'riding_'
'remaining_'
'remainder_'
'raisins_'
'protein_'
'produced_'
'problem_'
'potato_'
'plastic_'
'pi'
'per'
'owner_'
'ot'
'os'
'onto_'
'non_'
'na_'
'muffins_'
'morning_'
'measured_'
'mary_'
'mall_'
'ma_'
'lly_'
'leaked_'
'initial_'
'ho'
'helping_'
'ha'
'goats_'
'given_'
'ge_'
'ga'
'freight_'
'eaten_'
'drink_'
'dis'
'ding_'
'couple_'
'copies_'
'chips_'
'ce'
'cake_'
'brown_'
'board_'
'ble_'
'bird_'
'bins_'
'bedroom_'
'bar'
'ago_'
'afternoon_'
'additional_'
'ac'
'Will_'
'U'
'T_'
'Ro'
'Restaurant_'
'R'
'Oliver_'
'Mo'
'Lisa_'
'Ken'
'Juan_'
'Jo'
'James_'
'Faye_'
'David_'
'DVDs_'
'Charlie_'
'CD_'
'Brenda_'
'810_'
'51'
'4'
'320_'
'160_'
'13'
'129_'
'0'
'-((_'
'ye'
'worker_'
'who_'
'we'
'want_'
'wage_'
'vinegar_'
'ven'
'us_'
'trout_'
'totaled_'
'tion_'
'ti'
'thermometers_'
'ter'
'te'
'storm_'
'stars_'
'slower_'
'shed_'
'service_'
'sea'
'rt'
'reversed_'
'rents_'
'rented_'
're_'
'rained_'
'pumpkin_'
'pot'
'percentage_'
'pens_'
'pear_'
'ounce_'
'orchids_'
'orchid_'
'nt'
'ns_'
'mi'
'member_'
'light_'
'lamp_'
'ladybugs_'
'john_'
'jacket_'
'it'
'hundreds_'
'honey_'
'hol'
'hippopotamus_'
'hiked_'
'he'
'gu'
'ground_'
'graded_'
'gold_'
'foxes_'
'folders_'
'flash_'
'est_'
'equals_'
'employees_'
'dryer_'
'dresses_'
'dolls_'
'dealer_'
'd'
'cu'
'cornmeal_'
'con'
'computer_'
'collects_'
'collect_'
'charged_'
'ca'
'bulbs_'
'buckets_'
'bricklayer_'
'bowl_'
'binder_'
'ber_'
'bench_'
'baking_'
'baggies_'
'au'
'apartments_'
'al'
'airport_'
'admitted_'
'W'
'To_'
'Sean_'
'S_'
'Ru'
'Pa'
'Mi'
'La'
'Jim_'
'Jack_'
'Ha'
'George_'
'G'
'Co'
'Ce'
'C'
'Bob_'
'B'
'7'
'49'
'360_'
'35'
'29'
'175_'
'1500_'
'139_'
'136_'
'127_'
'124_'
'112_'
'06_'
'ze'
'wrong_'
'wi'
'whistles_'
'west_'
'wedding_'
'we_'
'washer_'
'walking_'
'wa'
'visit_'
'ver_'
'vegetables_'
'vans_'
'urs'
'ur'
'upstream_'
'types_'
'twelve_'
'trips_'
'treasure_'
'textbook_'
'taken_'
'strawberries_'
'stor'
'st'
'spring_'
'soup_'
'sorted_'
'socks_'
'si'
'sheets_'
'sheet_'
'scores_'
'scarves_'
'saw_'
'sacks_'
'ru'
'rs'
'rose_'
'roller'
'returning_'
'rea'
'ra'
'powder_'
'postcards_'
'pop_'
'po'
'playground_'
'planning_'
'pin'
'pil'
'painter_'
'own_'
'orders_'
'opposite_'
'mystery_'
'ms_'
'minimum_'
'mil'
'mb'
'material_'
'magic_'
'liter_'
'lawn_'
'lab_'
'je'
'ja'
'is'
'ir'
'ip'
'invited_'
'i_'
'hundred_'
'help_'
'guests_'
'grapefruit_'
'gift_'
'furniture_'
'fries_'
'fo'
'fit_'
'fi'
'ferris_'
'ena_'
'en_'
'em'
'directions_'
'der_'
'del'
'de'
'daisies_'
'count'
'couch_'
'cou'
'contained_'
'come_'
'color_'
'coach_'
'clips_'
'chair_'
'cha'
'cassettes_'
'cabbage_'
'bushels_'
'bumper_'
'bu'
'bricks_'
'blend_'
'bec'
'ba'
'automobile_'
'ass'
'art_'
'ap'
'adds_'
'actually_'
'Wednesday_'
'Three_'
'Ta'
'THE_'
'Suppose_'
'School_'
'Ri'
'Nicholas_'
'N'
'Mildred_'
'Michelle_'
'Mc'
'Mark_'
'Ja'
'High_'
'Henry_'
'Harry_'
'First_'
'Diane_'
'Determine_'
'Chloe_'
'Bobby_'
'Before_'
'Ar'
'Ann_'
'Al'
'900_'
'81'
'63'
'61'
'53'
'50'
'480_'
'380_'
'36'
'275_'
'270_'
'27'
'21'
'208'
'200'
'19'
'142'
'))+_'
'))'
' '
'yo'
'yfive_'
'yen_'
'world_'
'wheels_'
'way_'
'votes_'
'ver'
'vegetable_'
'using_'
'turned_'
'tt'
'town_'
'toward_'
'tions_'
'ting_'
'ther'
'tail_'
'taco_'
'strolled_'
'stone_'
'spots_'
'sports_'
'spends_'
'special_'
'spaces_'
'solutions_'
'snow_'
'sl'
'sixty_'
'sheep_'
'scoop_'
'scale_'
'sandcastle_'
'salmon_'
'saline_'
'rt_'
'rit'
'ring_'
'rie'
'required_'
'rental_'
'ree'
'recorded_'
'ral'
'rainfall_'
'rac'
'qua'
'plays_'
'picture_'
'pepper_'
'passenger_'
'par'
'pack_'
'pack'
'p_'
'owns_'
'ow'
'operators_'
'on'
'obtained_'
'number2_'
'nt_'
'ng'
'net_'
'miss_'
'mer'
'me'
'main_'
'machine_'
'ling_'
'letter'
'let'
'ler_'
'lemons_'
'ld_'
'laps_'
'laborers_'
'just_'
'join_'
'jackets_'
'incorrect_'
'i'
'hourly_'
'home'
'headwind_'
'harvested_'
'handed_'
'gan_'
'fridge_'
'floor_'
'flies_'
'ff'
'fewer_'
'feed_'
'event_'
'ear_'
'du'
'dri'
'drained_'
'door_'
'des'
'de_'
'ct'
'cra'
'cor'
'consumed_'
'consisting_'
'com'
'cola_'
'classroom_'
'cinnamon_'
'chip_'
'chili_'
'cheaper_'
'chan'
'catch_'
'carry_'
'carnival_'
'boy_'
'book'
'blood_'
'block_'
'bees_'
'bathing_'
'banana_'
'available_'
'ates_'
'ar_'
'app'
'any_'
'answered_'
'able_'
'Y_'
'Y'
'Vegetarian_'
'Vanessa_'
'Together_'
'Tiffany_'
'Sue_'
'Steve_'
'Sheridan_'
'Section_'
'Scarlett_'
'Re'
'Ralph_'
'Planet_'
'Nina_'
'Ned_'
'Martin_'
'Larry_'
'Lana_'
'L'
'Ka'
'Jonah_'
'Jennifer_'
'Gwen_'
'Ernest_'
'El'
'E_'
'Di'
'County_'
'Ca'
'By_'
'But_'
'Arthur_'
'Anne_'
'Altogether_'
'Alex_'
'Albert_'
'Aaron_'
'87'
'85'
'840_'
'8333333333333334_'
'780_'
'69'
'60'
'58'
'560_'
'54'
'510_'
'47'
'390_'
'378_'
'37'
'350_'
'344_'
'324_'
'315_'
'280_'
'261_'
'240_'
'24'
'225_'
'220_'
'190_'
'17'
'166666666666666_'
'1666666666666667_'
'162_'
'15'
'143_'
'133_'
'126_'
'115_'
'1111111111111111_'
'11'
'10'
'04_'
'))-_'
'ys'
'x'
'wrap_'
'wns_'
'wishes_'
'wings_'
'weed_'
'walks_'
'wait_'
'ves_'
'vanilla_'
'up'
'trumpet_'
'treasures_'
'tie_'
'thirteen_'
'tal'
'tailwind_'
'ta'
'swi'
'sweaters_'
'stored_'
'station_'
'ssi'
'sm'
'skate'
'sic'
'siamese_'
'shots_'
'shorts_'
'shipment_'
'shells_'
'she'
'several_'
'sec'
's'
'runs_'
'rows_'
'rope_'
'river_'
'ret'
'residents_'
'replaced_'
'rect'
'reading_'
'quiz_'
'quar'
'pre'
'post_'
'pork_'
'popular_'
'popcorn_'
'pocket_'
'planted_'
'place_'
'picking_'
'peroxide_'
'paying_'
'past'
'painted_'
'owe'
'over'
'oth'
'ot_'
'osh_'
'open'
'ome'
'ol'
'ok'
'oc'
'number1_'
'not'
'non'
'no'
'nni'
'ni'
'nes_'
'neighbor'
'nat'
'museum_'
'mp'
'mower_'
'missed_'
'ment_'
'manager_'
'lyric_'
'lunches_'
'lumber_'
'lt'
'lowest_'
'loves_'
'local_'
'little_'
'led_'
'lea'
'ld'
'la_'
'know_'
'ju'
'jog_'
'ium_'
'ist_'
'ire'
'ine_'
'im'
'ie_'
'id'
'ian_'
'heavier_'
'head_'
'h'
'goals_'
'goal_'
'gl'
'ging_'
'getting_'
'gasoline_'
'g'
'ft_'
'fort'
'for'
'fence_'
'facebook_'
'f'
'experiment_'
'ex'
'et'
'ent'
'enough_'
'ended_'
'enchiladas_'
'enchilada_'
'eighteen_'
'ed'
'driver_'
'dishes_'
'dirt_'
'directly_'
'dent'
'defeated_'
'damaged_'
'ction'
'cro'
'copy_'
'commission_'
'commercials_'
'coming_'
'collecting_'
'cleaned_'
'citizen_'
'chris_'
'chemist_'
'ch'
'cent_'
'cd_'
'cash'
'c'
'bread_'
'bracelet_'
'born_'
'blades_'
'bi'
'berries_'
'being_'
'begin'
'bea'
'bagels_'
'bad_'
'b'
'attendance_'
'attend_'
'at'
'aspirin_'
'asked_'
'anne_'
'ani'
'amounts_'
'acre_'
'Willie_'
'William_'
'We'
'Wa'
'Tyrone_'
'Tr'
'Thursday_'
'Their_'
'T'
'Si'
'Sharon_'
'Rosa_'
'Ron_'
'Rentals_'
'Ra'
'Pat_'
'Paco_'
'Nor'
'Ne'
'NUMBER_'
'Min'
'March_'
'Marc'
'Li'
'Kyle_'
'Kevin_'
'Jill_'
'Jenny_'
'Harold_'
'HCL_'
'Ge'
'Facebook_'
'Evelyn_'
'Dor'
'Debby_'
'Da'
'City_'
'CDs_'
'Beth_'
'Annie_'
'Adult_'
'9000_'
'760_'
'64'
'6'
'540_'
'522_'
'42'
'34'
'3'
'28'
'247'
'217_'
'210_'
'134'
'130_'
'122_'
'09_'
'0000_'
'))+((_'
')'
''. _'
'za_'
'yle'
'ya'
'worm_'
'word'
'wn_'
'windows_'
'window_'
'whack_'
'watermelon_'
'walnuts_'
'waitress_'
'vitamin_'
'visited_'
've_'
'ust'
'ure_'
'unt'
'unicycles_'
'unboxing_'
'una'
'ular'
'ues_'
'ue_'
'ual'
'tric'
'track_'
'tr'
'torn_'
'tor_'
'tor'
'tomorrow_'
'tomato'
'tired_'
'tie'
'those_'
'ten'
'tea_'
'taxes_'
'tart_'
'swimming_'
'supplies_'
'sunflowers_'
'suits_'
'stuffed_'
'stretch'
'stop_'
'stocks_'
'sto'
'starting_'
'stacked_'
'speeds_'
'spa'
'soybean_'
'song_'
'skee_'
'sk'
'sit'
'shop'
'shin'
'shelter_'
'sh'
'seventy_'
'sets_'
'seashell_'
'sc'
'salad_'
'rocks_'
'rm'
'riz'
'rist'
'rings_'
'rie_'
'remains_'
'record_'
'rece'
'real_'
'rc'
'rand'
'rackets_'
'quit_'
'qui'
'question_'
'que'
'purchases_'
'professor_'
'printer_'
'priced_'
'prairie_'
'plywood_'
'plates_'
'planting_'
'pink_'
'piggy_'
'peach_'
'pe'
'passengers_'
'passe'
'particular_'
'parrots_'
'parakeets_'
'pan'
'pairs_'
'packed_'
'overall_'
'ound_'
'oo'
'offers_'
'od'
'ob'
'ny_'
'nth'
'ns'
'noon_'
'noof_'
'nner_'
'nick'
'nic'
'mutual_'
'mu'
'mowed_'
'move_'
'mole_'
'mixing_'
'mittens_'
'metal_'
'met'
'mes'
'medium_'
'mechanic_'
'maximum_'
'mati'
'lw_'
'lu'
'low'
'lose_'
'lol'
'lle'
'lla'
'live_'
'lim'
'les_'
'les'
'leftover_'
'least_'
'lc_'
'landed_'
'land_'
'ks_'
'ko'
'king_'
'kind_'
'ket'
'ker'
'ka'
'ive'
'ist'
'isopropyl_'
'interest'
'int'
'installed_'
'ins_'
'individual_'
'inc'
'il_'
'ies_'
'ida'
'id_'
'ical_'
'ic'
'ia_'
'hydro'
'housing_'
'horse'
'hockey_'
'hit'
'hike_'
'hik'
'highest_'
'hen'
'held_'
'heads_'
'hats_'
'haircut_'
'great'
'grapes_'
'golf_'
'girl_'
'gathered_'
'fresh_'
'french_'
'frac_'
'fountain_'
'form'
'forgot_'
'flow'
'fleas_'
'fault_'
'expand_'
'exc'
'et_'
'estimate'
'ents_'
'ent_'
'engineers_'
'else_'
'electr'
'ee'
'east_'
'eas'
'ear'
'dy_'
'driving_'
'drank_'
'dr'
'downstream_'
'doughnuts_'
'dough'
'don'
'dist_'
'discovered_'
'deliver_'
'decrease_'
'decides_'
'dec'
'cyclist_'
'cy_'
'customer_'
'cupcake_'
'credit'
'counted_'
'costing_'
'correctly_'
'cork_'
'cookie_'
'cont'
'computers_'
'college_'
'coffees_'
'club_'
'clown_'
'classrooms_'
'cla'
'ck'
'ching_'
'chi'
'chemistry_'
'check'
'cer'
'cells_'
'cate'
'cassette_'
'cases_'
'carr'
'cargo_'
'call_'
'built_'
'builder_'
'broke_'
'brings_'
'break_'
'bra'
'bor'
'boom_'
'ble'
'bil'
'beanie_'
'basket_'
'ast_'
'as'
'am_'
'als_'
'allow'
'act'
'With_'
'Va'
'Un'
'Tori_'
'Th'
'Te'
'Stu'
'Ste'
'St'
'Sp'
'Shiela_'
'Se'
'San_'
'Ronald_'
'Richard_'
'Republicans_'
'Pe'
'Patrick_'
'Pamela_'
'Olivia_'
'Norma_'
'Milan_'
'Miki_'
'Mar'
'M_'
'M'
'Lexie_'
'Leah_'
'Lawrence_'
'K'
'Ju'
'Josh_'
'Je'
'January_'
'Jackson_'
'Irene_'
'Iesha_'
'He'
'Greg_'
'Gordon_'
'Francisco_'
'Five_'
'Ferris_'
'Fa'
'Eric_'
'Diana_'
'Democrats_'
'Daniel_'
'Cu'
'Col'
'Cody_'
'Chicago_'
'Car_'
'Bryan_'
'Bridget_'
'Bra'
'Billy_'
'Betty_'
'Be'
'Ba'
'Another_'
'Anna_'
'Amanda_'
'All_'
'All'
'Ali'
'Admission_'
'960_'
'94'
'875_'
'82'
'720_'
'684_'
'676_'
'66'
'65'
'648_'
'630_'
'563_'
'525_'
'510'
'504_'
'46'
'4500_'
'45'
'44'
'405_'
'395_'
'340_'
'33'
'325_'
'310'
'2876_'
'256_'
'2500_'
'246_'
'224_'
'223_'
'22'
'213_'
'206_'
'189_'
'177_'
'1667_'
'165_'
'16'
'155_'
'147_'
'147'
'146_'
'14'
'134_'
'132'
'123_'
'1200_'
'118_'
'1140_'
'113_'
'109_'
'102_'
'102'
'101_'
'10000_'
'02_'
' : _'
' ((_'
' %?_'
'zze'
'zil'
'zens_'
'yl'
'yields_'
'xi'
'worksheet_'
'wide_'
'who'
'whereas_'
'weren_'
'well_'
'wel'
'weigh'
'watches_'
'washcloth'
'wan'
'vote'
'volume_'
'vo'
'vin'
'ves'
'vendor_'
'vehicle_'
'vati'
'varies_'
'ute'
'ut'
'uses_'
'ura'
'unleaded_'
'unc'
'umb'
'um_'
'um'
'ui'
'tzerland_'
'trict'
'trick_'
'travelled_'
'transfer'
'trailer_'
'tractor_'
'towards_'
'too'
'throws_'
'through_'
'though_'
'tho'
'tb'
'taking_'
'sy'
'sweater_'
'sw'
'super'
'study'
'stroll_'
'strat'
'stop'
'sticks_'
'sti'
'state'
'starfish_'
'star'
'staff'
'stadium_'
'ss_'
'sport'
'spending_'
'speci'
'spe'
'spare_'
'souvenirs_'
'souvenir_'
'source_'
'sou'
'snail_'
'ski'
'sized_'
'sing_'
'side_'
'shaped_'
'ser'
'sen'
'see_'
'saves_'
'sat'
'samples_'
'sal'
'sacker_'
'row_'
'route_'
'ross_'
'roll'
'roadside_'
'rin'
'rid_'
'ria'
'reve'
'reserved_'
'ren'
'removes_'
'rem'
'rel'
'red'
'reciprocal_'
'recip'
'recent_'
'reas'
'rear_'
'ranger_'
'rai'
'radiator_'
'radi'
'racket_'
'ra_'
'quarts_'
'q'
'puts_'
'projects_'
'produce'
'process_'
'prints_'
'prepar'
'premi'
'practice'
'pp'
'positive_'
'pon'
'plum'
'plo'
'plants_'
'planes_'
'pes'
'persons_'
'permed_'
'perm_'
'peri'
'pav'
'papers_'
'pac'
'overtime_'
'ove_'
'ov'
'ou'
'op'
'ong_'
'ologist_'
'olin'
'ole'
'od_'
'occupan'
'occu'
'oatmeal_'
'number3_'
'nue'
'ntly_'
'notes_'
'noodles_'
'nn'
'ners_'
'neighbors_'
'nearest_'
'nda_'
'nc'
'na'
'my_'
'multiplied_'
'multiple_'
'mult'
'ms'
'motorcycle'
'motor'
'most_'
'mosquitoes_'
'mmy_'
'minus_'
'million_'
'microfiber_'
'meg'
'meet'
'meat_'
'mate'
'mark'
'marble_'
'manufacturer_'
'man'
'magazines_'
'ls'
'long'
'loaf_'
'list_'
'lis'
'ley_'
'lene_'
'leather_'
'las_'
'ky'
'kl'
'kinds_'
'kilo'
'kenyan_'
'junior_'
'jump'
'jumbo_'
'jogged_'
'jetstream_'
'jess'
'jeans_'
'jack'
'ivati'
'ity_'
'ise'
'io'
'involved_'
'inviting_'
'invests_'
'ing'
'index_'
'increase_'
'ier_'
'ie'
'ident'
'ice'
'ica_'
'ht'
'households_'
'hotdog_'
'hos'
'hio_'
'herself_'
'headphone'
'handles_'
'han'
'guitars_'
'grow'
'groom_'
'grandmother_'
'gram_'
'government_'
'gos_'
'gor'
'giving_'
'gi'
'fuel_'
'fruits_'
'frozen_'
'font_'
'flying_'
'flu'
'florist_'
'flight_'
'flax_'
'fish'
'fift'
'few_'
'fer'
'farm'
'factory_'
'ey_'
'express_'
'expe'
'everyone_'
'even'
'eti'
'est'
'eri'
'equipment_'
'ep'
'entire_'
'enter'
'enemy_'
'enemies_'
'elementary_'
'electrician_'
'ela_'
'egg_'
'eep'
'ec'
'dye_'
'drinks_'
'drew_'
'drawing'
'doubled_'
'dish_'
'destroy_'
'dest_'
'desks_'
'dep'
'demand_'
'dd'
'da_'
'cycl'
'crude_'
'created_'
'cre'
'cracked_'
'cover_'
'corporation_'
'contribut'
'constant_'
'consist'
'comp'
'comm'
'combination_'
'colo'
'col'
'coaster_'
'cm_'
'clo'
'clean'
'cle_'
'circus_'
'choose_'
'choice_'
'childrens_'
'cherries_'
'cher'
'cheese_'
'cauliflower_'
'capital_'
'cap'
'canned_'
'candles_'
'camp'
'business_'
'bur'
'build_'
'bucks_'
'bs_'
'broken_'
'bro'
'bride_'
'bracelets_'
'bouncy_'
'bond_'
'blueberr'
'blew_'
'bike'
'bicycl'
'began_'
'beepers_'
'bee'
'bed'
'bear_'
'bath_'
'bat'
'based_'
'bac'
'az'
'averag'
'audio_'
'ation_'
'ating_'
'artwork_'
'artment_'
'arti'
'arl'
'antas_'
'am'
'alex_'
'ale'
'air'
'ain_'
'ai'
'adve'
'achers_'
'ache'
'ace'
'Zach_'
'Wayne_'
'V'
'Total_'
'Tony_'
'Today_'
'To'
'Theresa_'
'Terry_'
'Susan_'
'Stephanie_'
'Simon'
'Shannon_'
'Seven_'
'Sea'
'Riz'
'Rece'
'Q'
'Pen'
'Paula_'
'Only_'
'Nin'
'Nicole_'
'Molly_'
'Melissa_'
'Me'
'Marl'
'Marie_'
'Mari'
'Louise_'
'Lakers_'
'Lake_'
'Kath'
'June_'
'Joshua_'
'Jones_'
'Johnny_'
'Jeff_'
'Japan_'
'Jake_'
'J'
'Helen_'
'Hector_'
'Gloria_'
'Gary_'
'GI'
'Fre'
'Fran'
'Flying_'
'Flo'
'Every_'
'ER'
'December_'
'Dan'
'D'
'Cr'
'Clarence_'
'Cl'
'Christin'
'Cheryl_'
'Carla_'
'Bruce_'
'Brian_'
'Bo'
'Assum'
'As_'
'Anthony_'
'Andre'
'=(-_'
'=((('
'880'
'864_'
'83'
'792_'
'75'
'73'
'71'
'700'
'608'
'59'
'55'
'520_'
'5'
'4950'
'479_'
'422'
'4000_'
'388'
'38'
'287'
'269'
'255_'
'221_'
'2100_'
'204'
'20'
'2'
'1986_'
'198'
'196'
'1700_'
'170'
'163'
'162'
'1600_'
'16000_'
'1450'
'1400_'
'135_'
'133'
'121'
'119_'
'107_'
'106_'
', '
')=(-_'
')/(_'
' ; _'
'zuelan_'
'zi'
'youngest_'
'yn_'
'yield'
'ycle_'
'yan_'
'ya_'
'xe'
'ws_'
'works'
'without_'
'within_'
'wis'
'wine_'
'wilted_'
'wer'
'wea'
'wat'
'war'
'wandered_'
'wag'
'vis'
'ving_'
'vide'
'vian_'
'vers_'
'vel'
've'
'vance_'
'urn'
'uri'
'ur_'
'uni'
'unde'
'und'
'unbroken_'
'ught_'
'uce'
'ub'
'tyrone_'
'turn_'
'tur'
'tulips_'
'tub_'
'tter'
'trunks_'
'trombone_'
'trol'
'triple_'
'travelling_'
'training_'
'tradi'
'towe'
'tour_'
'touc'
'totaling_'
'tires_'
'tif'
'ticks_'
'tic'
'thy_'
'thirty'
'there'
'text_'
'tes'
'teri'
'tenth_'
'tem'
'teaspoon'
'tch_'
'taxi_'
'tarts_'
'tan'
'tailor_'
'tablespoon_'
'super_'
'subtract'
'subscriptions_'
'strength'
'street_'
'strawberry_'
'str'
'ster_'
'steak_'
'stead'
'ste'
'stat'
'ssic'
'ss'
'squ'
'sprinted_'
'spilled_'
'spider'
'speaker_'
'spaceship_'
'soy'
'sow'
'solve_'
'solid_'
'sod'
'snowfall_'
'snowed_'
'snow'
'snake_'
'snack'
'sna'
'smoothies_'
'smallnumber_'
'sli'
'skirt_'
'sixt'
'sion_'
'sin'
'silk_'
'shrimp_'
'showed_'
'shor'
'shing'
'shi'
'shar'
'sha_'
'sey'
'ses'
'sel'
'scr'
'scientist'
'sawed_'
'saving_'
'sar'
'sandcastles_'
'sand'
'sample_'
'sally_'
'ry'
'rus'
'rp_'
'roofer_'
'roo'
'roc'
'rivers_'
'rinse'
'returned_'
'resulting_'
'requires_'
'republicans_'
'represents_'
'report'
'repl'
'repaved_'
'repa'
'renting_'
'rent'
'remained_'
'rels_'
'relative'
'regi'
'reg'
'recycle_'
'recess_'
'realizes_'
'reach_'
'rate'
'range'
'ranc'
'raise_'
'purse'
'pureacid_'
'punch_'
'pumps_'
'publisher_'
'public_'
'ption_'
'pt_'
'ps'
'proportion'
'prope'
'programmer'
'professors_'
'print'
'presentage_'
'present'
'prepared_'
'pping'
'poured_'
'pour_'
'postcard_'
'pora'
'pops'
'pond'
'polar_'
'pol'
'poets_'
'plate_'
'places_'
'pla'
'pitchers_'
'pints_'
'pine_'
'piece'
'picnic_'
'pic'
'pha'
'petr'
'peter_'
'perfect_'
'peppermint_'
'pen_'
'pen'
'pee'
'pecan'
'pea'
'payment'
'paycheck_'
'pave_'
'patient'
'parate'
'paintings_'
'overtakes_'
'out'
'ous'
'ort_'
'orig_'
'ori'
'organized_'
'ordina'
'orchestra_'
'oph'
'ope_'
'ons_'
'oni'
'onboard_'
'om_'
'nutmeg_'
'nut_'
'ntosh_'
'nti'
'nte'
'novelists_'
'notebooks_'
'nor'
'nooftickets_'
'nonstudent_'
'nis'
'ning'
'niece'
'nici'
'ney_'
'newspapers_'
'net'
'nest'
'necklace_'
'near'
'nd_'
'nce_'
'nation'
'name'
'mustard_'
'muffs_'
'mp_'
'movies_'
'movi'
'moved_'
'mou'
'mothers_'
'moon_'
'mond_'
'mold'
'mm'
'ml_'
'mixes_'
'mit'
'mini'
'mic'
'mi_'
'messag'
'mel'
'medicine_'
'med'
'meatballs_'
'measuring_'
'meadow_'
'me_'
'mc'
'mat'
'market_'
'male_'
'magician_'
'mag'
'lunchroom_'
'luncheon_'
'lsea_'
'losses_'
'los'
'log'
'loans_'
'lling_'
'lines_'
'lie'
'lic'
'libraries_'
'librarian_'
'lf'
'lest'
'lesser_'
'lemon_'
'leg_'
'leen_'
'lde'
'lay'
'lat'
'largenumber_'
'lap_'
'labor_'
'kona_'
'know'
'kes_'
'keep'
'junk_'
'juggl'
'jog'
'ji'
'jer'
'jellybeans_'
'jelly_'
'ive_'
'ith'
'item_'
'iron_'
'ions'
'investor_'
'interm'
'inter'
'insects_'
'inquiries_'
'initially_'
'ini'
'ine'
'including_'
'included_'
'include'
'ina'
'ill'
'ight_'
'ig'
'ien'
'hy'
'hun'
'hose_'
'holding_'
'hive'
'her'
'helpe'
'heights_'
'heavy_'
'heart_'
'hea'
'hardware_'
'hand'
'gumballs_'
'grows_'
'groceries_'
'grocer_'
'gre'
'grape'
'grade'
'gr'
'gon'
'go'
'glasses_'
'glass_'
'giant_'
'gh'
'ger_'
'geometry_'
'gen_'
'gem_'
'gears_'
'garments_'
'gains_'
'gain'
'funds_'
'fund'
'fu'
'front_'
'fri'
'fra'
'fourteen_'
'fol'
'fix'
'fishbowl'
'fir_'
'fin'
'figures_'
'fields_'
'fic'
'ffe'
'fes'
'fell_'
'fect'
'favorite_'
'fans_'
'exa'
'ew_'
'eve'
'etch'
'essay_'
'ess'
'ese_'
'erci'
'enrolled_'
'ence_'
'employed_'
'emb'
'eighth_'
'eg'
'ef'
'een_'
'earth'
'ears_'
'earning_'
'ean'
'eal_'
'ea'
'dw_'
'dust_'
'due_'
'duc'
'drum'
'drops_'
'drain_'
'dragonflies_'
'dra'
'doug'
'donate'
'donald'
'dodgeball_'
'divi'
'distribute'
'disks_'
'discs_'
'din'
'dime_'
'dig'
'diet_'
'dien'
'developers_'
'deposit'
'democrats_'
'decide_'
'debate_'
'dc_'
'dance_'
'daffodil_'
'cus_'
'culate'
'cubes_'
'ctive_'
'cted_'
'creat'
'cranberry_'
'covered_'
'cousin_'
'coup'
'conve'
'contin'
'content_'
'container_'
'consum'
'cons'
'concentrat'
'conce'
'computation_'
'competi'
'columbian_'
'coat'
'clients_'
'client_'
'cleaning_'
'classmate'
'cl'
'ckey_'
'citi'
'cicadas_'
'cho'
'ches_'
'checking_'
'cheap_'
'chapters_'
'changes_'
'cell_'
'catfish_'
'catches_'
'carvings_'
'carbo'
'canes_'
'campsite_'
'cal'
'cab'
'ca_'
'butterf'
'burritos_'
'brownies_'
'bri'
'brand_'
'bran'
'bou'
'boots_'
'bones_'
'boa'
'bli'
'blad'
'bl'
'bit'
'bin'
'bikinis_'
'big'
'bicycle_'
'better_'
'ber'
'belt_'
'bee_'
'bead_'
'be'
'batteries_'
'batch_'
'bat_'
'bas'
'bald'
'bakery_'
'backyard_'
'avi'
'averages_'
'aunt_'
'att'
'atre_'
'ath'
'ated_'
'assessed_'
'ary_'
'arriv'
'area_'
'ard'
'appro'
'ape'
'animal_'
'ang'
'ance'
'amusement_'
'ame'
'almounds_'
'almonds_'
'ali'
'ake'
'ah_'
'age'
'ag'
'aerobics_'
'advanced_'
'addition_'
'action_'
'act_'
'acoustic_'
'aci'
'accounts_'
'accommodate_'
'ab'
'\u'
'Zel'
'Zachary_'
'Wo'
'Will'
'White_'
'We_'
'Wal_'
'Wag'
'Virginia_'
'Vince_'
'Ve'
'Valentines_'
'Uni'
'Tyler_'
'Trisha_'
'Tina_'
'Tick'
'Ti'
'The'
'Tes'
'Terrell_'
'Teresa_'
'TH'
'Suz'
'Superbowl_'
'Sun'
'Sumat'
'Student_'
'Stanley_'
'Spencer_'
'Soybean_'
'Sol'
'So_'
'Sho'
'Shirley_'
'Sh'
'Sen'
'Scott_'
'Sc'
'Rose_'
'Robert_'
'Roadster_'
'Res'
'Rent'
'Reg'
'Pri'
'Pre'
'Pl'
'Pi'
'Ph'
'Paving_'
'Part'
'Oscar_'
'Of_'
'Oc'
'Oak_'
'O_'
'Nic'
'Newberg_'
'Na'
'N_'
'My_'
'Mor'
'Montoya_'
'Model_'
'Milburg_'
'Mik'
'Michele_'
'Michael_'
'Matthew_'
'Mart_'
'Marilyn_'
'Mandy_'
'Maggi'
'MP3_'
'Louis_'
'Logan_'
'Lind'
'Lincoln_'
'Lin'
'Lillian_'
'Lemon_'
'LA'
'Kylie_'
'Ki'
'Kenya_'
'Kenny_'
'Kendra_'
'Kendall_'
'Kathy_'
'Katherine_'
'Kar'
'Julia'
'Jul'
'Joseph_'
'Jor'
'Johnson_'
'Jesse_'
'Jess_'
'Jer'
'Jac'
'Isabella_'
'Irwin_'
'Hound_'
'Hannah_'
'Hancock_'
'Gu'
'Grove_'
'Gre'
'Go'
'Garrett_'
'Fo'
'Eve_'
'Eugene_'
'Erik_'
'Em'
'Ell'
'Elizabeth_'
'East_'
'Earth_'
'Dr'
'Doug'
'Donna_'
'Donald'
'Do'
'Dina_'
'Darnel_'
'Dale_'
'D_'
'DVD_'
'DI'
'Countertop_'
'Com'
'Colle'
'Cindy_'
'Christian_'
'Che'
'Ch'
'Carlos_'
'Brennan_'
'Brandy_'
'Brand'
'Br'
'Bonnie_'
'Bi'
'Benjamin_'
'Ben_'
'Becky_'
'Batman_'
'Bar'
'Bahamas_'
'As'
'Anita_'
'Ang'
'Am'
'Allie_'
'AL'
'99'
'980_'
'970_'
'952_'
'95'
'930'
'921_'
'918_'
'912_'
'839_'
'833333333333332_'
'809_'
'8000_'
'791_'
'77'
'764'
'741_'
'740'
'72'
'712'
'709_'
'679_'
'666666666666667_'
'660_'
'65899_'
'650_'
'640_'
'635'
'610'
'593_'
'580'
'575_'
'550_'
'542_'
'535_'
'5256_'
'4d_'
'4900'
'489_'
'480'
'460_'
'442_'
'437'
'434_'
'418_'
'416'
'397_'
'395'
'387_'
'384'
'370_'
'3409_'
'339_'
'327_'
'323_'
'318'
'312_'
'303_'
'2d_'
'2987_'
'290_'
'279'
'2778_'
'276_'
'265_'
'264'
'260_'
'26'
'259'
'252_'
'245_'
'2315_'
'222_'
'2222222222222222_'
'2200'
'219_'
'218'
'201_'
'201'
'1980_'
'193_'
'192_'
'1900_'
'187_'
'185'
'183_'
'1800000_'
'178_'
'172_'
'171_'
'157'
'156_'
'1535_'
'152_'
'1520_'
'148'
'1475_'
'144_'
'138_'
'1350_'
'1250_'
'121_'
'12000_'
'117_'
'112'
'1110_'
'108_'
'105'
'1028_'
'093_'
'03_'
'*((_'
')/(('
')-('
'((((_'
' , $ _'
' )'
' ('
' %'
'm'
'H'
'-'
'*'
'v'
'`'
'Z'
'('
'&'
'%'
'$'
'^'
'X'
';'
'1'
'/'
'.'
'+'
'''
'’'
'j'
'\'
'?'
'>'
'='
'<'
':'
','
